<unk>	0
<s>	0
</s>	0
<pad>	0
,	-2.84758
.	-3.30804
▁в	-3.96265
▁-	-4.08546
-	-4.16848
▁не	-4.21196
▁и	-4.23501
а	-4.25402
!	-4.25476
▁на	-4.35039
▁а	-4.58039
▁что	-4.58136
▁с	-4.6093
е	-4.64454
?-	-4.68262
▁я	-4.79633
▁у	-4.80966
и	-4.92045
▁	-4.94056
▁по	-5.06592
...	-5.17366
у	-5.21778
?	-5.24906
м	-5.29613
.-	-5.29742
▁это	-5.31645
▁как	-5.31923
▁за	-5.33386
▁ты	-5.33799
▁вы	-5.37909
ы	-5.58871
▁к	-5.71195
й	-5.74434
ом	-5.75725
▁от	-5.77728
▁все	-5.79284
т	-5.84119
ов	-5.85997
▁из	-5.86382
▁да	-5.88748
я	-5.89492
▁если	-5.90636
▁так	-5.91176
▁меня	-5.91599
о	-5.91854
то	-5.92695
▁но	-5.92783
▁когда	-5.93828
▁он	-5.98496
▁мне	-6.04681
▁то	-6.08209
ся	-6.09358
с	-6.14519
▁о	-6.14758
▁нет	-6.14968
х	-6.15498
в	-6.18185
ка	-6.22924
▁же	-6.2554
ю	-6.26418
▁ну	-6.27177
ки	-6.28686
▁до	-6.29004
ли	-6.29607
▁только	-6.30964
л	-6.32087
▁бы	-6.35377
ой	-6.37272
р	-6.37849
▁при	-6.3968
ку	-6.42414
ет	-6.42803
▁почему	-6.43692
▁его	-6.44397
▁под	-6.45163
▁раз	-6.45941
▁чтобы	-6.46253
▁тебя	-6.50332
▁про	-6.5107
д	-6.51238
▁уже	-6.52796
▁она	-6.53207
▁еще	-6.53534
к	-6.53831
ра	-6.54713
▁вас	-6.55206
▁мы	-6.5608
▁для	-6.57192
▁вот	-6.60352
▁есть	-6.60845
ла	-6.6376
ть	-6.6402
н	-6.65289
▁кто	-6.66073
го	-6.66514
на	-6.70587
▁со	-6.72954
з	-6.74402
но	-6.75093
ая	-6.75831
▁чем	-6.75871
ж	-6.79838
▁говорит	-6.81006
ми	-6.82593
▁они	-6.8273
▁тебе	-6.82957
▁жена	-6.87218
те	-6.87842
ь	-6.87926
ем	-6.89392
п	-6.90606
▁ее	-6.93914
▁нас	-6.94759
▁можно	-6.94894
ный	-6.98328
да	-6.98386
ами	-6.9906
▁во	-7.00782
ый	-7.01307
▁после	-7.0136
▁ли	-7.02612
▁будет	-7.02862
ло	-7.02864
▁вам	-7.02954
▁где	-7.0389
▁там	-7.04112
▁просто	-7.04495
▁один	-7.04673
▁или	-7.04887
ш	-7.05049
?!	-7.05926
▁два	-7.05954
▁может	-7.06292
▁об	-7.07092
▁очень	-7.08065
▁надо	-7.08082
ах	-7.08528
▁без	-7.08748
ке	-7.10663
г	-7.12093
▁их	-7.12662
▁было	-7.13344
▁лет	-7.13971
▁муж	-7.14566
...-	-7.16919
▁сегодня	-7.17251
ст	-7.19943
▁был	-7.20325
ую	-7.21814
▁больше	-7.22053
▁ни	-7.22995
ит	-7.23671
▁теперь	-7.23765
▁время	-7.24333
ни	-7.24547
ей	-7.25034
▁пере	-7.25215
за	-7.25723
не	-7.25954
ной	-7.26381
ого	-7.26612
ные	-7.27076
▁потому	-7.27529
ить	-7.28222
▁спрашивает	-7.28904
▁человек	-7.29025
▁вчера	-7.29114
ые	-7.30608
ам	-7.30931
ная	-7.31055
▁ему	-7.3106
б	-7.3111
▁день	-7.31536
▁девушка	-7.3328
ых	-7.33382
▁россии	-7.34265
ч	-7.35018
ль	-7.35826
ать	-7.35987
▁даже	-7.36071
▁потом	-7.37507
ок	-7.37509
ер	-7.38217
▁мама	-7.38951
▁себе	-7.3924
им	-7.39787
▁лучше	-7.40071
▁себя	-7.41104
ф	-7.42435
▁хорошо	-7.42568
▁доктор	-7.4382
ется	-7.44092
ля	-7.44993
ру	-7.45286
▁ничего	-7.45837
▁мужик	-7.45993
ре	-7.46208
ил	-7.47291
ко	-7.47813
▁всегда	-7.47836
он	-7.47999
ле	-7.48196
▁женщина	-7.48299
сти	-7.48804
▁какой	-7.48838
ва	-7.49067
ют	-7.49291
▁быть	-7.49468
чи	-7.49906
▁сейчас	-7.50452
по	-7.51088
ных	-7.52639
▁мой	-7.53116
▁него	-7.53375
▁люди	-7.53734
▁пока	-7.53823
та	-7.54209
▁чего	-7.54753
▁жизнь	-7.55357
ти	-7.55619
▁ко	-7.55762
▁сколько	-7.56036
па	-7.56297
▁папа	-7.56859
кой	-7.57211
▁жизни	-7.57662
▁деньги	-7.58684
▁три	-7.59355
ешь	-7.59635
▁тут	-7.59896
ят	-7.60797
▁две	-7.60984
ри	-7.61066
га	-7.61157
ия	-7.61619
▁тоже	-7.61737
▁того	-7.62811
ым	-7.6338
▁тогда	-7.63778
▁перед	-7.63806
жи	-7.64075
ве	-7.64105
▁мужчина	-7.64741
▁штирлиц	-7.6485
▁такой	-7.6502
▁зачем	-7.65092
ий	-7.66365
▁значит	-7.68208
▁тем	-7.6931
нибудь	-7.69565
лся	-7.69838
ча	-7.70125
че	-7.70131
▁нужно	-7.70449
во	-7.71009
ну	-7.71264
▁дома	-7.71662
де	-7.71718
▁через	-7.71978
ту	-7.72215
▁всех	-7.74186
ного	-7.74714
▁них	-7.74879
▁никогда	-7.74983
ен	-7.75
ди	-7.75057
▁много	-7.75261
▁домой	-7.76256
ают	-7.76849
▁такое	-7.76999
▁знаю	-7.78049
ие	-7.78462
▁всего	-7.78808
ое	-7.79054
▁женщины	-7.79097
ня	-7.79577
▁который	-7.80699
ную	-7.80787
▁те	-7.81114
му	-7.81317
▁моя	-7.81337
ны	-7.81418
ает	-7.82266
0	-7.82479
ным	-7.83074
ду	-7.83107
▁хочу	-7.83115
▁конечно	-7.84195
▁тот	-7.84241
▁ведь	-7.84416
▁п	-7.8442
▁ш	-7.84549
вал	-7.8457
▁могу	-7.85007
щ	-7.85188
ин	-7.852
ал	-7.85514
▁была	-7.85645
▁сам	-7.8609
▁год	-7.86739
от	-7.86973
▁пол	-7.87184
ться	-7.87327
или	-7.87863
▁сказал	-7.88636
▁ей	-7.88677
сь	-7.91598
ша	-7.92137
са	-7.92182
▁приходит	-7.93107
ков	-7.93294
ном	-7.93596
▁которые	-7.93707
ии	-7.94083
▁куда	-7.95757
▁та	-7.96326
ты	-7.97098
пи	-7.97335
▁стоит	-7.97635
▁кого	-7.98081
▁вообще	-7.98449
их	-7.98488
▁своей	-7.99087
▁новый	-7.99435
ше	-7.99537
би	-7.99981
▁людей	-8.00311
▁буду	-8.00535
ро	-8.00634
▁одна	-8.00939
▁сразу	-8.01081
лись	-8.01124
лю	-8.01299
ви	-8.01377
▁ре	-8.01417
▁каждый	-8.01443
▁говорят	-8.01532
об	-8.023
ются	-8.02316
ное	-8.03321
▁делать	-8.03618
▁вопрос	-8.03849
ения	-8.03893
▁нам	-8.04359
ры	-8.04427
ши	-8.04852
▁том	-8.05186
▁1	-8.06405
▁какая	-8.06726
▁работу	-8.06772
▁че	-8.0725
ник	-8.07597
ста	-8.07665
▁человека	-8.07717
▁знаешь	-8.08675
бе	-8.08698
▁э	-8.0887
ба	-8.09253
▁свою	-8.09599
лась	-8.0972
▁дорогой	-8.09854
▁им	-8.10194
ком	-8.11243
▁мальчик	-8.1171
вы	-8.12002
▁этом	-8.12374
▁рас	-8.1244
▁этот	-8.12646
▁пор	-8.12673
ги	-8.12708
▁г	-8.14774
▁денег	-8.14782
▁давай	-8.14995
ол	-8.15171
▁этого	-8.15388
▁всю	-8.15501
иться	-8.15964
ев	-8.16113
ишь	-8.17524
▁дети	-8.1854
си	-8.18698
▁идет	-8.18717
ние	-8.19089
▁были	-8.1913
ись	-8.1957
▁долго	-8.21029
▁раньше	-8.21298
▁такая	-8.21469
▁мужчины	-8.21493
▁сынок	-8.22731
лы	-8.22814
до	-8.22886
▁дорогая	-8.23357
ар	-8.24341
ист	-8.24348
лет	-8.24353
прав	-8.2443
ор	-8.24742
▁никто	-8.24844
▁опять	-8.24944
▁ней	-8.25074
э	-8.25507
сть	-8.25653
▁хочешь	-8.25739
▁вовочка	-8.26022
же	-8.26439
▁какие	-8.26517
лу	-8.27593
▁будут	-8.27637
али	-8.28148
ще	-8.2832
из	-8.28525
жа	-8.28898
▁между	-8.28948
▁знаете	-8.29193
ится	-8.2953
ик	-8.29781
мы	-8.29925
▁з	-8.30113
▁года	-8.30133
▁друг	-8.30146
мен	-8.30184
▁путин	-8.30273
▁телефон	-8.30362
▁плохо	-8.30402
▁ла	-8.3054
ел	-8.31234
▁вер	-8.3152
ан	-8.31576
су	-8.31602
▁здесь	-8.31711
▁утром	-8.31982
▁вдруг	-8.32215
юсь	-8.32408
▁мужа	-8.32793
лен	-8.3283
▁тех	-8.32891
▁своего	-8.32961
▁2	-8.33318
▁равно	-8.34018
▁пожалуйста	-8.34198
▁над	-8.34298
▁свой	-8.35161
ед	-8.35231
ство	-8.35319
▁хоть	-8.35553
▁сын	-8.35614
▁поэтому	-8.35787
▁кон	-8.35935
ите	-8.36096
тся	-8.36686
тер	-8.36753
пе	-8.3682
▁нельзя	-8.37232
▁сосед	-8.37546
▁ночь	-8.3781
ась	-8.37907
▁другой	-8.38036
▁подходит	-8.38171
бо	-8.38377
▁кот	-8.38409
▁люблю	-8.38486
▁нее	-8.38539
▁ж	-8.38562
▁девушки	-8.38599
▁жить	-8.38671
▁двух	-8.38849
▁женщин	-8.38932
▁совсем	-8.39604
▁первый	-8.39861
▁мир	-8.40089
▁должен	-8.40365
▁такие	-8.40719
▁скажите	-8.40927
▁моей	-8.40956
йте	-8.41109
▁жены	-8.41179
▁сказать	-8.41287
пу	-8.41427
ска	-8.41526
▁эти	-8.41534
сто	-8.41788
▁пить	-8.42018
▁гор	-8.42028
▁понял	-8.42235
нии	-8.42362
▁жене	-8.42464
ним	-8.42527
ский	-8.42932
▁ди	-8.43431
чу	-8.43507
▁детей	-8.43995
ат	-8.44402
▁подумал	-8.44659
▁мало	-8.45195
▁руки	-8.45458
▁будешь	-8.45602
вать	-8.45665
▁знает	-8.45761
▁весь	-8.45875
▁место	-8.4596
бы	-8.4596
▁всем	-8.46431
цы	-8.46515
▁сидит	-8.46951
▁свои	-8.46951
нул	-8.47404
▁пре	-8.47512
ской	-8.47527
про	-8.47783
▁ваш	-8.47957
▁правда	-8.48244
▁завтра	-8.48655
ила	-8.48839
▁сначала	-8.48864
нее	-8.49329
▁сделать	-8.4942
ение	-8.49521
▁пришел	-8.49895
гу	-8.4992
▁интересно	-8.50131
уч	-8.50191
тель	-8.50235
▁работы	-8.50436
дел	-8.50589
▁ним	-8.51117
ц	-8.51231
▁дело	-8.51269
▁стар	-8.51334
▁хотел	-8.51374
▁свет	-8.51535
ками	-8.52028
▁тобой	-8.52154
▁жену	-8.52985
ней	-8.53074
▁могут	-8.53172
▁мужу	-8.53379
ния	-8.53397
▁спать	-8.53425
▁ой	-8.53744
▁де	-8.53838
▁парень	-8.53898
▁глаза	-8.53921
жд	-8.53981
▁женой	-8.5428
▁самое	-8.54647
▁хочется	-8.5492
шь	-8.5497
▁одного	-8.54984
▁кажется	-8.55009
▁решил	-8.55015
ха	-8.55178
▁одной	-8.55316
▁ночью	-8.55382
▁дела	-8.55407
се	-8.55565
нуть	-8.5591
ци	-8.56255
▁улице	-8.56347
▁купил	-8.56882
зи	-8.57411
▁пять	-8.57534
▁закон	-8.57579
▁мо	-8.57671
▁стал	-8.57743
▁отец	-8.5777
▁наконец	-8.57849
▁дом	-8.582
▁минут	-8.58475
▁точно	-8.58799
▁наш	-8.58971
нь	-8.59066
▁бо	-8.59084
нов	-8.59101
од	-8.59136
ров	-8.59466
▁смотрит	-8.59977
ец	-8.60028
▁ответ	-8.6009
ив	-8.60155
дер	-8.60206
сп	-8.60212
▁дверь	-8.603
▁одно	-8.60417
ешься	-8.60959
▁стать	-8.61066
▁скоро	-8.61203
▁второй	-8.61339
ний	-8.61577
▁рублей	-8.61876
▁дня	-8.62005
▁ту	-8.62121
ными	-8.62629
▁народ	-8.62768
бу	-8.62794
▁откуда	-8.62825
▁па	-8.62918
▁ло	-8.62989
▁объявление	-8.63313
▁пе	-8.63313
ию	-8.63412
▁вид	-8.63503
▁твой	-8.63668
▁10	-8.63804
ского	-8.63886
ца	-8.63983
▁голову	-8.64226
▁бр	-8.64356
нд	-8.64404
▁врач	-8.64494
▁замуж	-8.64538
ала	-8.64544
▁час	-8.64557
вор	-8.64959
це	-8.64988
нос	-8.65074
▁своих	-8.65338
▁разве	-8.65339
▁видел	-8.65354
аться	-8.65588
шу	-8.65629
▁постоянно	-8.65728
▁магазин	-8.65933
▁хочет	-8.65996
▁мои	-8.66533
▁иногда	-8.66557
▁самый	-8.66599
лад	-8.666
▁собой	-8.66757
▁слова	-8.67018
нет	-8.67055
▁пред	-8.67122
жен	-8.67671
ности	-8.67803
▁водки	-8.67894
▁давно	-8.67927
▁быстро	-8.67945
ут	-8.6797
▁слово	-8.68131
чка	-8.68405
▁против	-8.68607
хо	-8.68858
ается	-8.68974
ек	-8.69008
ился	-8.69067
▁скажи	-8.69328
▁работе	-8.69352
▁голос	-8.69585
стр	-8.69873
▁вечером	-8.70002
▁которая	-8.70093
▁мной	-8.70172
ина	-8.70175
▁мог	-8.70574
ья	-8.70632
▁девочка	-8.71162
▁меньше	-8.71473
▁ка	-8.71885
вид	-8.71975
▁заходит	-8.72191
ель	-8.72208
▁кар	-8.72318
▁утра	-8.72579
▁русский	-8.73058
ск	-8.73382
▁машину	-8.73405
▁ноги	-8.73443
чит	-8.73494
▁ф	-8.73576
ность	-8.73864
▁лишь	-8.73869
▁нос	-8.74052
▁одну	-8.74116
▁рядом	-8.74198
▁главное	-8.74315
ому	-8.74356
▁назад	-8.74839
очка	-8.74863
жу	-8.74884
▁работает	-8.74955
чик	-8.75067
▁пап	-8.75076
▁столько	-8.7508
▁кому	-8.75173
нт	-8.75277
5	-8.75326
раз	-8.75367
▁сказала	-8.75479
▁5	-8.75489
▁наверное	-8.75506
▁пиво	-8.75714
▁кор	-8.75721
ция	-8.76058
▁твоя	-8.76096
шка	-8.76097
вар	-8.76134
ская	-8.76337
таки	-8.76374
▁месяц	-8.76493
▁ос	-8.76529
▁суд	-8.76732
▁молодой	-8.76885
▁своим	-8.76953
▁прав	-8.76977
со	-8.77164
▁дед	-8.77507
▁спи	-8.77801
ятся	-8.77813
▁блин	-8.77881
лов	-8.77912
пер	-8.78317
▁кофе	-8.78511
▁ле	-8.786
▁бл	-8.78627
▁сильно	-8.78781
▁бес	-8.78971
при	-8.79152
▁уж	-8.79228
▁сша	-8.79244
ез	-8.79397
▁купить	-8.79518
▁таки	-8.79741
ыми	-8.7976
▁привет	-8.79999
лось	-8.80027
▁прямо	-8.80211
▁говорить	-8.80329
▁начал	-8.8039
▁ма	-8.80457
▁м	-8.80543
▁сто	-8.8058
сс	-8.80762
аешь	-8.81057
▁туалет	-8.81071
ские	-8.81286
▁работать	-8.81293
ировать	-8.81336
▁думаю	-8.81468
▁бабушка	-8.81528
▁алло	-8.81531
▁туда	-8.81635
▁разговор	-8.81711
чки	-8.81764
▁году	-8.81942
▁женщину	-8.81956
▁цен	-8.81959
▁ваша	-8.82217
▁вместе	-8.8249
▁собака	-8.82546
▁президент	-8.82602
▁увидел	-8.82875
▁правильно	-8.83156
ды	-8.83363
▁готов	-8.83398
▁нравится	-8.83465
▁баб	-8.83539
▁эта	-8.83576
ции	-8.83669
▁совет	-8.83841
▁слишком	-8.8385
▁обычно	-8.84055
▁можешь	-8.85037
▁спасибо	-8.85037
ели	-8.851
▁несколько	-8.85237
▁никак	-8.85372
▁мире	-8.85579
ках	-8.85686
▁д	-8.85716
▁более	-8.85842
▁постели	-8.85847
▁бог	-8.85874
▁часа	-8.85957
▁ба	-8.86022
ости	-8.86035
▁взял	-8.86041
лей	-8.86048
▁мужчин	-8.86174
▁наши	-8.8621
▁стол	-8.86458
▁свое	-8.86698
▁любит	-8.86817
▁р	-8.87084
▁хотя	-8.8717
▁обо	-8.87226
▁найти	-8.87267
▁бывает	-8.87715
▁пора	-8.87769
▁слушай	-8.88068
▁кем	-8.8817
▁настолько	-8.88281
нут	-8.88457
чат	-8.88658
▁мать	-8.88789
▁немного	-8.88948
▁сделал	-8.8903
▁спрашивают	-8.8918
вали	-8.89189
▁работа	-8.89261
▁легко	-8.89327
▁россия	-8.8933
▁интернет	-8.89688
▁телевизор	-8.89812
▁член	-8.89837
▁именно	-8.89966
▁город	-8.89966
▁нашей	-8.90025
▁рождения	-8.90141
ос	-8.90322
ог	-8.90409
▁какое	-8.90486
▁понимаю	-8.90488
▁ста	-8.90593
чен	-8.90931
ался	-8.91062
▁часто	-8.91143
▁момент	-8.91199
▁мам	-8.91326
▁мужики	-8.91589
▁вместо	-8.91619
▁любовь	-8.9164
▁ме	-8.9166
▁ваши	-8.91661
▁хотите	-8.9183
ясь	-8.91922
▁школе	-8.9205
▁будем	-8.9208
гла	-8.92247
ика	-8.92289
пла	-8.92536
▁бу	-8.9265
▁раза	-8.92672
▁отвечает	-8.92686
▁мюллер	-8.92744
род	-8.92832
▁двое	-8.92901
▁пар	-8.92955
▁вечер	-8.92969
▁этой	-8.93191
▁оно	-8.9337
▁делает	-8.93486
▁пусть	-8.93591
▁способ	-8.93724
▁друга	-8.93756
▁самолет	-8.93792
▁получил	-8.93792
ете	-8.93806
овать	-8.93851
▁сидят	-8.93962
▁умер	-8.93997
▁утро	-8.9402
ывает	-8.94194
▁жив	-8.9429
щий	-8.9446
▁чай	-8.94682
▁детстве	-8.95077
▁гости	-8.95591
сы	-8.96175
▁еврей	-8.96211
ню	-8.96252
▁компьютер	-8.96258
▁времени	-8.96301
ски	-8.96419
▁пьян	-8.96486
нию	-8.96578
▁пьяный	-8.9672
ских	-8.97246
ден	-8.97277
▁зад	-8.97329
▁стране	-8.97433
айте	-8.97447
ость	-8.97454
▁зато	-8.97459
▁мимо	-8.97588
▁фильм	-8.97713
▁особенно	-8.97982
чь	-8.97999
▁либо	-8.98267
▁видит	-8.98331
▁родители	-8.98437
▁проблемы	-8.98458
▁сами	-8.98567
▁милый	-8.98952
▁га	-8.99342
▁20	-8.99358
▁смотреть	-8.99412
▁случайно	-8.99482
▁воз	-8.99519
▁слышал	-8.99525
бор	-8.99537
▁магазине	-8.99537
▁эту	-8.9969
▁пошел	-8.99795
▁идиот	-8.99848
▁звонит	-9.00016
▁думаешь	-9.00158
▁маленький	-9.00272
▁тысяч	-9.00455
ному	-9.00475
стан	-9.00494
▁мою	-9.00524
▁рот	-9.00524
▁газ	-9.0058
▁мороз	-9.00744
▁четыре	-9.00752
ман	-9.00833
▁сер	-9.00856
▁х	-9.01044
ход	-9.01399
илась	-9.01566
▁неделю	-9.01677
▁брат	-9.01818
дет	-9.01973
муж	-9.02394
▁сына	-9.02623
▁прос	-9.02719
атор	-9.02762
▁мужика	-9.02826
▁смотри	-9.02902
▁язык	-9.02976
йся	-9.03096
▁вес	-9.03164
она	-9.03167
▁путина	-9.0318
▁другому	-9.03258
чно	-9.03277
▁звонок	-9.03356
тро	-9.03399
▁давайте	-9.03589
шки	-9.03644
▁стали	-9.0371
▁девушку	-9.0381
▁сама	-9.03897
▁б	-9.04045
ства	-9.04054
▁водку	-9.04055
▁вещи	-9.04121
▁кредит	-9.0429
▁вкус	-9.0449
▁голове	-9.04609
цен	-9.04637
▁знаком	-9.04675
▁расп	-9.04726
▁например	-9.04773
▁которой	-9.04774
▁кота	-9.04953
▁которого	-9.05016
▁кричит	-9.05016
▁ра	-9.05144
бра	-9.05224
бр	-9.05648
ника	-9.05727
▁ребенка	-9.05749
▁нашел	-9.05751
▁начальник	-9.05875
▁лицо	-9.05985
пил	-9.06061
чку	-9.06092
▁мед	-9.06095
стра	-9.06198
▁бед	-9.06216
тор	-9.06376
▁самая	-9.06439
бл	-9.06569
▁блондинка	-9.0677
лом	-9.06913
тен	-9.0701
ваю	-9.07063
ву	-9.07157
▁само	-9.07336
▁дура	-9.07474
▁100	-9.07527
▁мол	-9.07537
▁начинает	-9.07597
▁месте	-9.07814
▁трех	-9.07913
пле	-9.08049
кор	-9.08128
▁студент	-9.08138
цию	-9.08187
▁бар	-9.0822
▁говорю	-9.08226
▁нужен	-9.08266
▁товарищ	-9.0827
▁нового	-9.08474
рен	-9.08537
▁выходит	-9.08605
▁яйца	-9.08873
▁лож	-9.08901
▁глаз	-9.09038
три	-9.0909
кро	-9.09307
▁класс	-9.09372
▁должна	-9.09489
▁недавно	-9.09489
▁дай	-9.09699
кс	-9.09699
▁руку	-9.09886
овой	-9.10155
шей	-9.10193
▁другие	-9.10363
▁голова	-9.10426
▁деле	-9.10508
▁самом	-9.10569
▁пят	-9.10671
▁дочь	-9.10725
▁номер	-9.1078
очку	-9.10835
▁пер	-9.10838
кий	-9.10917
▁обязательно	-9.11025
▁вижу	-9.11104
▁дурак	-9.11118
▁счет	-9.11136
ники	-9.11165
▁однажды	-9.11543
▁нормально	-9.11546
▁иван	-9.11616
▁ох	-9.11654
▁этим	-9.11743
▁трудно	-9.11763
▁род	-9.12021
рь	-9.12172
▁кол	-9.12195
▁встречаются	-9.12346
▁ча	-9.1237
воз	-9.12379
▁зам	-9.12392
ье	-9.12395
▁думал	-9.12638
▁отпуск	-9.12655
▁шо	-9.12689
ова	-9.12805
▁вся	-9.12839
▁брак	-9.12881
▁живет	-9.12909
▁часов	-9.13048
▁большой	-9.13111
▁цел	-9.13112
щи	-9.1316
щу	-9.13208
стве	-9.13312
▁мат	-9.13368
▁теща	-9.13643
ском	-9.13708
пр	-9.13832
стро	-9.13835
▁которых	-9.13905
▁обратно	-9.13905
рт	-9.13925
дать	-9.1396
▁глав	-9.14018
енный	-9.14207
оз	-9.14408
чить	-9.14411
▁друзья	-9.14593
▁десять	-9.14706
▁план	-9.14736
00	-9.14744
▁называется	-9.14749
▁извините	-9.14804
вин	-9.14935
тра	-9.14978
▁ха	-9.15029
▁доме	-9.15064
зы	-9.15161
▁случае	-9.15243
▁ночи	-9.15292
▁черт	-9.15308
нный	-9.15314
тов	-9.15368
▁моего	-9.15378
▁др	-9.15438
▁девушке	-9.15512
▁счастье	-9.15512
▁лес	-9.15588
▁ходить	-9.15662
▁гре	-9.15684
▁понимаешь	-9.1587
▁будто	-9.15899
▁спас	-9.16024
▁самые	-9.16048
▁иди	-9.16212
▁поезд	-9.1635
▁квартиру	-9.1642
▁слов	-9.16536
▁ученые	-9.166
сов	-9.16705
ях	-9.17026
▁официант	-9.17204
▁девушкой	-9.17419
▁вашей	-9.17775
▁других	-9.1778
▁рабинович	-9.17971
ству	-9.17986
▁понять	-9.18084
▁ду	-9.18184
ились	-9.18218
▁цвет	-9.18256
▁ребенок	-9.18526
▁ум	-9.18963
▁плат	-9.18996
▁нем	-9.19157
▁праздник	-9.19201
▁снова	-9.19409
▁принес	-9.19447
ее	-9.19659
▁пару	-9.19677
изм	-9.19758
ью	-9.19867
▁ладно	-9.19964
▁семье	-9.19969
▁мое	-9.20046
▁страшно	-9.20173
▁теле	-9.20173
▁зуб	-9.20262
▁хватает	-9.20304
▁смотрю	-9.20495
▁тому	-9.2065
▁оказывается	-9.20783
ница	-9.21094
цев	-9.212
▁пива	-9.21227
итесь	-9.21229
▁какую	-9.21305
▁ужас	-9.21379
▁любят	-9.21389
▁получ	-9.21698
▁ро	-9.21719
ывать	-9.21772
▁пи	-9.21978
▁ку	-9.2207
▁живот	-9.22113
▁должны	-9.22209
▁новости	-9.2221
▁мест	-9.22261
ось	-9.22301
▁опыт	-9.22413
▁ша	-9.22543
вший	-9.22581
▁нему	-9.22607
▁ага	-9.22617
▁думает	-9.22667
▁сад	-9.22751
ъ	-9.22776
▁лежит	-9.22798
▁стало	-9.2286
▁тре	-9.23157
ге	-9.23294
скую	-9.23367
▁учитель	-9.23368
▁попал	-9.23555
▁случилось	-9.23662
▁почти	-9.23664
▁банк	-9.23669
▁здравствуйте	-9.23679
олог	-9.23853
▁долларов	-9.23969
▁новую	-9.24256
▁упал	-9.24343
▁воды	-9.24413
▁полу	-9.24564
▁взять	-9.2471
▁женщине	-9.2502
▁би	-9.25027
▁ок	-9.25123
▁пал	-9.25132
▁проб	-9.25135
▁бел	-9.25203
емся	-9.25399
▁делают	-9.25406
▁кроме	-9.25438
▁помню	-9.255
▁любой	-9.25588
под	-9.25802
очки	-9.25814
2	-9.25851
▁жил	-9.25893
▁твои	-9.25992
▁удар	-9.26117
▁третий	-9.26333
▁стакан	-9.26341
▁хороший	-9.26361
▁недо	-9.26397
ирован	-9.26421
▁москве	-9.26634
нем	-9.26713
щик	-9.26936
▁дальше	-9.26937
▁машина	-9.26956
▁идут	-9.27021
▁ю	-9.27042
▁ходил	-9.27082
▁кур	-9.27111
▁здоров	-9.27143
▁знал	-9.27218
▁поп	-9.27323
▁хватит	-9.27411
▁зап	-9.27421
пор	-9.27444
▁развод	-9.27546
▁ответил	-9.27605
▁своему	-9.27705
▁говорил	-9.27752
▁пил	-9.27834
▁любишь	-9.27874
пит	-9.27898
▁оп	-9.27939
меня	-9.27952
▁открыл	-9.28043
▁возраст	-9.28163
▁поздно	-9.28194
▁воду	-9.28285
▁такого	-9.28377
▁владимир	-9.28455
▁действительно	-9.28464
▁пришла	-9.2847
▁новая	-9.28475
зу	-9.28513
▁кра	-9.28546
▁кап	-9.28561
дал	-9.28685
▁дайте	-9.28686
ями	-9.28695
▁отличается	-9.28781
▁ми	-9.2885
1	-9.28914
▁будете	-9.28963
▁страна	-9.29007
▁чуть	-9.29043
▁окно	-9.29161
▁надпись	-9.29195
ирует	-9.2922
▁придется	-9.2922
▁посмотри	-9.29269
▁имеет	-9.29464
▁новые	-9.29711
ложи	-9.29718
▁лев	-9.29725
▁хотят	-9.29821
▁смотрел	-9.29909
▁гораздо	-9.30009
▁трав	-9.30021
▁вами	-9.30236
▁лесу	-9.30367
▁вокруг	-9.30635
▁первого	-9.30635
▁русские	-9.30647
▁странно	-9.30688
чный	-9.30699
▁зовут	-9.307
▁холодильник	-9.30942
▁гол	-9.31038
▁гад	-9.31111
▁нож	-9.31121
▁голод	-9.31307
▁получается	-9.3138
щих	-9.31476
ину	-9.31506
▁правительство	-9.31581
▁разговаривают	-9.31642
нс	-9.31866
▁первым	-9.31901
▁сэр	-9.31909
▁зарплату	-9.31969
▁становится	-9.32217
ром	-9.32259
▁50	-9.323
▁чу	-9.32326
▁солдат	-9.32537
▁карман	-9.3257
▁хорошая	-9.32609
▁человеку	-9.32796
▁чист	-9.32934
рез	-9.32955
▁случай	-9.3299
▁мер	-9.33057
бить	-9.3315
▁играть	-9.33151
▁связи	-9.3317
▁заявил	-9.33179
ишься	-9.33309
▁быстрее	-9.33501
▁мусор	-9.33502
нг	-9.33569
▁лу	-9.33639
кон	-9.33671
щие	-9.33803
▁настоящий	-9.33825
▁бор	-9.33905
▁метро	-9.33934
ску	-9.33952
▁сказали	-9.34004
нная	-9.34066
ания	-9.34086
▁твоей	-9.34323
▁стороны	-9.34367
▁обе	-9.34477
▁делаешь	-9.34601
▁клуб	-9.3464
▁одни	-9.34773
▁тр	-9.34866
ницы	-9.34954
▁машины	-9.35032
▁мил	-9.35048
▁баба	-9.35116
▁пойду	-9.35201
кая	-9.35214
▁дает	-9.35276
▁каким	-9.3531
▁бросил	-9.35403
▁футбол	-9.35814
▁потерял	-9.35868
ивает	-9.35898
▁совершенно	-9.35942
▁иметь	-9.36126
▁женщиной	-9.3624
▁фе	-9.36313
▁проблем	-9.36349
▁удалось	-9.36454
▁проблема	-9.3652
▁море	-9.36614
▁возможно	-9.3662
▁водка	-9.36797
▁любви	-9.3682
рос	-9.36838
▁интерес	-9.3688
▁ради	-9.36954
▁берет	-9.36981
▁можете	-9.36987
▁помог	-9.36988
▁15	-9.37089
▁людям	-9.37122
▁красивая	-9.37149
▁смысл	-9.37173
▁нужны	-9.37195
▁называют	-9.37312
▁му	-9.37335
▁директор	-9.37382
▁украине	-9.37455
▁вроде	-9.37488
оро	-9.37532
▁люся	-9.37582
▁фи	-9.37644
▁ходит	-9.3769
▁люб	-9.37736
▁кино	-9.37787
нные	-9.37811
▁ел	-9.37866
▁лето	-9.37915
ались	-9.38031
▁гаишник	-9.3813
▁пьет	-9.38135
▁петрович	-9.38144
▁какого	-9.38167
▁гос	-9.38293
▁окна	-9.38302
▁мужчину	-9.38359
▁волк	-9.38363
▁которую	-9.38469
▁школу	-9.38469
▁президента	-9.38494
▁экзамен	-9.38528
▁пациент	-9.38566
▁знать	-9.38576
▁страны	-9.38661
▁любил	-9.38732
▁пара	-9.3878
ват	-9.38897
ительно	-9.38924
енно	-9.38959
еб	-9.39165
▁автобус	-9.39219
▁квартире	-9.39364
▁ужин	-9.39426
▁орган	-9.39431
▁должно	-9.39435
вой	-9.3948
друг	-9.39912
▁след	-9.39944
жена	-9.40014
▁нашего	-9.40018
▁курить	-9.40045
▁друзей	-9.40181
▁пожар	-9.4023
▁сел	-9.40265
▁судя	-9.40291
▁коп	-9.40302
▁вышел	-9.40302
▁негр	-9.40318
▁решили	-9.40431
шку	-9.40471
▁завод	-9.4055
▁клиент	-9.40875
▁спокойно	-9.40876
▁ти	-9.41045
▁прост	-9.41062
нка	-9.41074
▁посмотрел	-9.41083
▁таким	-9.411
▁прекрасно	-9.41223
▁узнать	-9.41223
▁наша	-9.41229
▁сердце	-9.41237
ич	-9.41314
▁среди	-9.41376
рел	-9.41418
▁труд	-9.41436
▁забыл	-9.41546
▁достаточно	-9.41573
▁программист	-9.41574
▁учительница	-9.41585
вшись	-9.41669
▁петров	-9.41696
▁трусы	-9.41737
▁сидоров	-9.41924
▁власти	-9.41941
▁маме	-9.41949
▁конце	-9.42022
рас	-9.42029
▁кухне	-9.42276
▁мет	-9.42365
▁права	-9.42515
▁рад	-9.42563
ивают	-9.42564
ющих	-9.42604
▁дорогу	-9.42651
▁ума	-9.42686
дель	-9.42763
▁показал	-9.42833
▁абрам	-9.42992
▁видишь	-9.43047
так	-9.43076
▁мозг	-9.43082
ваться	-9.43126
▁руга	-9.43144
▁уверен	-9.43205
ывают	-9.43289
теля	-9.43342
▁пришлось	-9.43352
▁места	-9.43389
▁разница	-9.43537
▁чувство	-9.43552
▁мира	-9.43565
льно	-9.43668
▁пью	-9.43815
▁руках	-9.43907
чкой	-9.44024
▁дней	-9.44239
▁хрен	-9.44254
▁сыр	-9.44318
▁холод	-9.44385
▁мел	-9.4441
▁многие	-9.44415
▁мечта	-9.44592
▁старый	-9.44644
▁свин	-9.44694
▁очередь	-9.44776
▁чаще	-9.44812
▁шел	-9.44925
▁пост	-9.44997
чке	-9.45062
ьте	-9.45197
▁следующий	-9.45223
дов	-9.45257
ус	-9.45363
▁выход	-9.45402
▁един	-9.45485
▁армии	-9.45502
▁комп	-9.4553
▁узнал	-9.45544
▁парня	-9.45572
зер	-9.45696
▁дел	-9.45744
▁дать	-9.45759
▁вз	-9.45861
▁пишет	-9.45873
▁сара	-9.45883
▁могли	-9.45893
▁обед	-9.45965
▁приходится	-9.46212
▁представляешь	-9.46233
▁женился	-9.46245
▁стала	-9.46254
▁просит	-9.46339
▁реально	-9.4634
▁другого	-9.46458
пал	-9.46461
иль	-9.46588
▁любовник	-9.46602
▁профессор	-9.46644
▁гу	-9.46659
▁крас	-9.46702
▁знают	-9.4671
▁боль	-9.4681
держа	-9.46812
▁тра	-9.46961
▁оказалось	-9.4697
▁свадьбы	-9.4697
▁жениться	-9.46988
▁дра	-9.47139
ял	-9.47168
▁долг	-9.47243
▁срочно	-9.47342
▁дыр	-9.47351
▁простите	-9.47445
ников	-9.47608
сты	-9.47759
ировал	-9.48008
▁написал	-9.48085
▁шут	-9.48114
▁гон	-9.48197
▁голуб	-9.48204
▁семь	-9.483
ское	-9.48412
▁ру	-9.48432
▁авто	-9.48471
нки	-9.48529
ять	-9.48544
▁грудь	-9.48659
▁зелен	-9.48755
лить	-9.48762
вый	-9.48976
▁команд	-9.49037
ший	-9.49051
▁пример	-9.49156
▁бесплатно	-9.49213
▁достал	-9.49214
▁пришли	-9.49216
▁жир	-9.49269
▁болит	-9.49292
▁наше	-9.49327
▁право	-9.49405
рет	-9.49408
цу	-9.49492
бег	-9.49495
▁наших	-9.49555
▁хозяин	-9.49592
ющие	-9.49652
щая	-9.49723
▁пакет	-9.49771
▁дур	-9.49783
▁суп	-9.49817
▁оста	-9.49903
▁велик	-9.50006
▁боюсь	-9.50032
▁подруга	-9.50068
▁поле	-9.50134
▁дочка	-9.50184
▁живут	-9.50236
▁умеет	-9.50247
▁вася	-9.50274
стей	-9.50321
▁жалуется	-9.50354
▁съел	-9.50359
▁рано	-9.50369
▁добро	-9.5038
▁нашли	-9.5066
▁подарок	-9.50737
▁твою	-9.50737
▁осталось	-9.50752
▁поймал	-9.50752
▁друж	-9.50809
▁нашем	-9.50865
йтесь	-9.50902
▁руками	-9.50907
▁граждан	-9.50946
ток	-9.50974
▁ман	-9.51033
▁отме	-9.51098
клю	-9.51257
▁успел	-9.51519
▁игра	-9.51559
▁бег	-9.5156
▁дедушка	-9.51917
▁рост	-9.5197
▁купи	-9.52061
▁иду	-9.52162
▁пове	-9.52186
▁выпуск	-9.52186
чал	-9.52347
▁кат	-9.52412
▁спит	-9.52469
▁одном	-9.52589
▁устал	-9.5261
▁автомобиль	-9.52675
▁россиян	-9.52688
тели	-9.52905
▁секрет	-9.53054
▁маленькая	-9.53069
▁ними	-9.53087
▁недели	-9.53119
▁политик	-9.53135
▁отношения	-9.53244
дя	-9.53287
▁написано	-9.533
▁дам	-9.53307
▁встреча	-9.53367
▁вон	-9.53376
▁семья	-9.53417
▁гл	-9.53437
▁света	-9.53501
ям	-9.53505
ант	-9.53571
ень	-9.53635
▁кабинет	-9.53695
алась	-9.53884
▁собаку	-9.53902
▁начинают	-9.53907
▁бизнес	-9.53991
▁врачу	-9.53991
▁часы	-9.53999
▁брать	-9.54132
▁мух	-9.54153
▁проходит	-9.54161
▁расс	-9.5422
▁матери	-9.54224
▁честно	-9.54283
▁внук	-9.54316
▁считает	-9.54421
▁иванов	-9.54621
▁бутылку	-9.54651
▁россию	-9.54651
▁вышла	-9.54658
▁коньяк	-9.54663
овые	-9.54692
▁такую	-9.54694
▁тест	-9.54734
вай	-9.54739
▁шесть	-9.54834
▁ген	-9.54846
▁крут	-9.54969
▁двери	-9.55003
▁мужем	-9.55029
▁дли	-9.55032
▁идти	-9.55067
▁водитель	-9.55177
▁сред	-9.55222
▁станет	-9.55225
щего	-9.55247
цией	-9.55258
▁фор	-9.55277
тал	-9.55387
етесь	-9.554
▁обращается	-9.55453
▁мясо	-9.55487
▁еду	-9.55622
▁ног	-9.55666
дут	-9.55692
▁пяти	-9.5581
▁танк	-9.5583
итель	-9.55841
шке	-9.55888
▁тихо	-9.55896
ак	-9.55939
▁снег	-9.55972
кал	-9.55982
▁взгляд	-9.56261
▁кошка	-9.56385
▁машине	-9.56571
▁купила	-9.5658
▁первом	-9.56672
▁сидел	-9.56694
▁посмотреть	-9.56769
бол	-9.56779
▁рассказывает	-9.56927
▁этих	-9.56942
▁дороги	-9.57113
▁своем	-9.57138
жил	-9.5729
▁волосы	-9.57373
дин	-9.5738
▁шеф	-9.57497
▁нужна	-9.57498
▁другу	-9.57574
▁зна	-9.57604
▁зубы	-9.57616
▁понятно	-9.57702
▁заметил	-9.57752
чер	-9.57784
▁крик	-9.57848
▁одновременно	-9.57897
▁депутат	-9.58061
▁тур	-9.58134
тельно	-9.58164
▁черн	-9.58171
▁пис	-9.58273
▁хлеб	-9.5828
▁лучший	-9.5831
▁конец	-9.58414
▁тер	-9.58632
▁своими	-9.58636
▁больной	-9.58647
▁приятно	-9.58659
ление	-9.58686
рка	-9.58745
▁театр	-9.58759
▁бал	-9.58782
ики	-9.58826
инг	-9.58902
фа	-9.58918
тре	-9.59016
▁которым	-9.59142
▁ан	-9.59144
чески	-9.59155
▁вечно	-9.59167
▁возвращается	-9.59183
▁фу	-9.59212
▁ремонт	-9.59281
▁вашего	-9.59281
ины	-9.59437
▁срок	-9.59477
▁унитаз	-9.5956
▁последний	-9.5956
▁миллион	-9.59593
▁созда	-9.59704
▁целый	-9.59704
▁автобусе	-9.59896
▁наркоман	-9.60034
▁убил	-9.60085
работа	-9.60168
▁ч	-9.60253
▁горяч	-9.60338
▁подруги	-9.60408
▁остальные	-9.60416
▁никого	-9.60453
▁видно	-9.60493
▁мор	-9.60507
▁человеком	-9.60638
▁тяжело	-9.6076
чок	-9.60776
▁доллар	-9.60807
▁смерти	-9.60826
▁учил	-9.60827
▁пошли	-9.60836
▁12	-9.60871
▁постель	-9.60906
▁спросил	-9.60985
▁интернете	-9.61076
▁чувствую	-9.61082
что	-9.61224
▁кризис	-9.61251
▁выйти	-9.61278
бежал	-9.61299
▁лом	-9.61348
▁спал	-9.61423
▁вино	-9.61597
▁лен	-9.61605
▁алкоголь	-9.61679
▁желание	-9.61683
нешь	-9.61688
▁кас	-9.61699
ницу	-9.61973
▁рож	-9.61983
▁крем	-9.62105
▁собственно	-9.62108
▁понедельник	-9.62108
▁скорее	-9.62109
▁русского	-9.62123
▁едет	-9.62128
уют	-9.62162
▁сигарет	-9.62164
ева	-9.62249
▁выбор	-9.62266
▁громко	-9.62452
▁мя	-9.62481
▁начала	-9.6256
▁каждого	-9.62616
▁лег	-9.6273
рить	-9.62744
▁лица	-9.62771
▁которое	-9.62898
▁полов	-9.62914
▁российско	-9.62924
▁изя	-9.62981
▁нечего	-9.62986
▁первой	-9.62987
▁прием	-9.62988
▁считать	-9.62998
▁курс	-9.63056
▁руб	-9.63118
▁милая	-9.63133
▁девушек	-9.63407
▁некоторые	-9.63407
▁парашют	-9.63407
▁ничто	-9.63407
▁хр	-9.63537
▁города	-9.63613
нести	-9.63641
▁т	-9.63659
▁другим	-9.63742
▁рыба	-9.63755
пре	-9.63816
▁фото	-9.6385
кам	-9.63871
овал	-9.63885
нных	-9.63897
▁сема	-9.63938
▁раст	-9.63971
ским	-9.64074
▁приехал	-9.64119
▁однако	-9.64127
няя	-9.64217
▁хотела	-9.64255
▁платье	-9.64304
▁спирт	-9.64317
доб	-9.64371
▁лап	-9.64519
▁пыта	-9.6453
▁невозможно	-9.64722
▁жопу	-9.64723
▁настроение	-9.64741
▁бух	-9.64839
▁запах	-9.64865
▁чисто	-9.64897
▁дороге	-9.65069
▁ге	-9.65095
жет	-9.65136
▁мадам	-9.65166
▁мысли	-9.65184
▁ход	-9.65199
▁часть	-9.65553
рон	-9.65555
▁психиатр	-9.65562
▁ска	-9.65722
нок	-9.65773
▁видели	-9.65804
хожу	-9.65812
▁занима	-9.65822
▁собаки	-9.65835
▁дал	-9.65887
▁такси	-9.65916
▁эх	-9.65937
▁очереди	-9.66056
▁сзади	-9.66061
▁паспорт	-9.66064
▁вход	-9.66067
▁русских	-9.66068
▁легче	-9.66104
▁мод	-9.66245
▁другом	-9.66302
▁бер	-9.66501
▁родился	-9.66575
▁головой	-9.66626
▁любим	-9.66657
ица	-9.66708
▁врача	-9.66865
▁соседи	-9.66867
▁туалете	-9.66939
▁наоборот	-9.66955
▁холодно	-9.67008
▁думать	-9.67018
▁ушел	-9.67058
ивать	-9.67091
▁жар	-9.67101
вания	-9.67112
рек	-9.67128
▁днем	-9.67266
▁килограмм	-9.67407
▁девочки	-9.67413
▁отлично	-9.67418
▁радио	-9.67549
▁стоят	-9.67727
▁ребята	-9.67858
▁секунд	-9.67862
▁похоже	-9.67881
мор	-9.67926
▁виде	-9.67931
▁отца	-9.67937
ваешь	-9.67958
▁лично	-9.67976
▁носки	-9.67992
▁богат	-9.68159
▁борщ	-9.68238
▁блондинки	-9.68318
▁украины	-9.68318
нула	-9.68338
▁фигур	-9.68348
▁смог	-9.68371
▁возле	-9.68436
▁глуп	-9.68524
▁стоя	-9.68647
▁счастлив	-9.68733
▁глядя	-9.68777
▁первое	-9.68778
жит	-9.68812
▁вода	-9.68946
▁умный	-9.68982
▁заказ	-9.6901
▁рез	-9.69061
нием	-9.69087
▁смотрят	-9.69106
овый	-9.69137
лка	-9.69232
▁ухо	-9.69247
▁молодая	-9.69343
▁проще	-9.69412
▁телефону	-9.6954
▁получить	-9.69544
▁скажу	-9.69599
▁типа	-9.69669
▁трамп	-9.69675
▁диван	-9.69678
▁внимание	-9.69701
▁отдыха	-9.69752
▁вашу	-9.69763
сил	-9.69779
шек	-9.69852
▁жал	-9.69883
▁спор	-9.69906
▁одним	-9.69907
▁черный	-9.70269
▁ногу	-9.70304
▁ест	-9.70305
▁конца	-9.7031
▁враг	-9.70361
ием	-9.70375
нного	-9.70456
▁абсолютно	-9.70467
▁оч	-9.70507
▁мужчине	-9.70522
▁факт	-9.70653
▁пес	-9.70731
▁слон	-9.70778
▁сос	-9.70834
▁звезд	-9.70877
▁китай	-9.70879
▁живу	-9.70887
▁билет	-9.70899
▁имя	-9.70931
шкой	-9.71031
тан	-9.71085
▁гинеколог	-9.71103
▁бывают	-9.71124
▁звер	-9.71135
▁рус	-9.71372
▁толст	-9.71376
▁нерв	-9.7145
▁писать	-9.71561
▁согласи	-9.71576
▁малыш	-9.71583
▁новых	-9.71586
▁эконом	-9.71645
▁цирк	-9.71678
▁летом	-9.71706
▁кос	-9.71706
ован	-9.71739
▁таких	-9.71827
▁назвал	-9.72004
▁последнее	-9.72049
▁воздух	-9.72049
▁принял	-9.72225
▁раздел	-9.72229
нку	-9.72242
▁ходят	-9.72247
▁переход	-9.72254
▁пас	-9.72294
▁красиво	-9.72321
ению	-9.72364
▁евро	-9.72486
▁хо	-9.72513
▁неужели	-9.72525
▁обещал	-9.72525
▁жених	-9.72572
щей	-9.72639
бит	-9.72651
▁ор	-9.72669
▁запад	-9.72725
▁гей	-9.72752
рит	-9.7288
▁стрел	-9.7291
▁шоколад	-9.73003
▁российские	-9.73003
▁сижу	-9.73024
нять	-9.7304
▁хотели	-9.73062
▁вред	-9.73091
▁отдел	-9.73129
▁открывает	-9.73251
жать	-9.73303
▁министр	-9.7335
▁айфон	-9.73486
▁размер	-9.73514
▁плохая	-9.73526
▁продаж	-9.73549
▁толк	-9.73584
▁любимая	-9.73614
▁книгу	-9.73681
гал	-9.73707
▁грузин	-9.73739
▁тело	-9.73756
овых	-9.73778
▁собак	-9.73849
ации	-9.73907
▁покупать	-9.73967
енные	-9.74005
▁маш	-9.74077
▁думают	-9.7423
▁молча	-9.7429
▁псих	-9.74378
его	-9.74416
▁бабы	-9.74458
▁тяжел	-9.74529
▁хирург	-9.74534
▁любимый	-9.74551
▁роз	-9.74694
▁мин	-9.74731
гуля	-9.74757
▁вин	-9.74779
ушка	-9.74782
дают	-9.74786
▁поставил	-9.74823
▁лошадь	-9.7494
▁российских	-9.7494
▁большая	-9.74946
▁сложно	-9.75257
сн	-9.75323
▁ль	-9.75337
▁канал	-9.75341
▁роди	-9.75383
овая	-9.75441
▁новое	-9.75456
▁здоровье	-9.75456
▁думаете	-9.7559
▁брос	-9.75725
▁ленин	-9.75763
▁подарил	-9.75855
▁бат	-9.75856
▁цены	-9.75899
исты	-9.75909
крыл	-9.75914
▁выглядит	-9.75923
▁балкон	-9.75938
▁причин	-9.7597
▁зло	-9.76014
дом	-9.76016
чные	-9.76066
▁круг	-9.76119
овую	-9.76178
▁предложил	-9.76184
▁бога	-9.76223
▁встал	-9.76252
▁фа	-9.76287
▁боже	-9.76304
▁начина	-9.76332
▁двор	-9.76337
▁вор	-9.76346
▁читать	-9.7642
чил	-9.76464
▁букв	-9.76617
▁попа	-9.76721
▁хотелось	-9.7695
▁объяснить	-9.7696
▁маша	-9.76964
ставил	-9.76979
▁ваше	-9.77024
▁ры	-9.77031
кин	-9.77043
▁дорож	-9.77099
▁ресторан	-9.77119
▁известно	-9.77121
▁пойдем	-9.77204
▁психолог	-9.77293
▁ресторане	-9.77372
▁котором	-9.77378
▁институт	-9.77415
▁первая	-9.77416
▁фраза	-9.77417
вели	-9.77426
▁правило	-9.7751
▁работаю	-9.77572
▁умные	-9.77584
▁считают	-9.77618
▁количество	-9.77632
▁рук	-9.77665
енная	-9.7774
▁мар	-9.77773
игра	-9.77799
▁печень	-9.77918
▁костюм	-9.77919
▁дерево	-9.77921
▁называть	-9.77939
есси	-9.77976
ило	-9.78021
ище	-9.78024
▁решила	-9.78073
▁выпив	-9.78157
▁доченька	-9.78423
▁вирус	-9.78425
▁картин	-9.78442
▁плеч	-9.78473
▁придет	-9.7855
чная	-9.78593
▁результат	-9.78617
▁мал	-9.78736
▁первые	-9.78931
▁открыт	-9.79041
▁каждой	-9.79159
▁ешь	-9.79222
▁попросил	-9.79235
▁знак	-9.79289
▁смысле	-9.7936
▁мамы	-9.79388
▁пацан	-9.79444
▁выпил	-9.79445
ющий	-9.7951
▁цветы	-9.79619
тый	-9.79655
▁порт	-9.79663
▁торт	-9.79734
▁сил	-9.7979
▁побед	-9.79809
ируют	-9.79874
▁мальчика	-9.79913
▁велосипед	-9.79954
▁математик	-9.79954
▁является	-9.79954
▁бензин	-9.79954
▁молоко	-9.7999
▁волос	-9.7999
▁сидя	-9.80017
▁прошло	-9.80103
вшие	-9.80121
▁бе	-9.8021
нное	-9.80214
▁дали	-9.80236
▁рыб	-9.80239
нер	-9.80323
▁выше	-9.80468
▁чукча	-9.80469
▁хвост	-9.8047
▁никому	-9.80473
▁родителей	-9.80474
▁иначе	-9.80485
▁кафе	-9.805
▁пла	-9.80502
▁ждет	-9.80531
▁помогает	-9.80536
▁пользу	-9.80703
▁сыну	-9.80725
тар	-9.80886
▁занят	-9.809
▁школы	-9.80987
▁компании	-9.80988
▁сидеть	-9.80992
▁марта	-9.81002
▁крым	-9.81031
▁страх	-9.81041
рут	-9.81092
▁тепл	-9.81097
▁правду	-9.81103
▁жаль	-9.81109
▁страш	-9.81182
▁прыг	-9.8137
▁генерал	-9.8143
▁читает	-9.81518
▁свете	-9.81533
▁скрип	-9.81543
▁дорого	-9.81548
▁времена	-9.81655
▁провод	-9.81826
▁презерватив	-9.81894
еле	-9.81941
▁стоматолог	-9.82032
▁дядя	-9.82032
▁совесть	-9.82035
▁ушла	-9.82049
▁хорошее	-9.82057
▁двадцать	-9.82076
▁другую	-9.82093
вес	-9.82253
вел	-9.82265
▁собира	-9.82271
▁жалко	-9.82276
▁платить	-9.8241
▁стул	-9.82431
▁бабка	-9.82475
▁пуст	-9.82491
▁выпить	-9.82499
▁дают	-9.82519
лич	-9.82557
▁сможет	-9.82558
▁шанс	-9.82584
вшая	-9.8267
▁шар	-9.82822
▁одному	-9.82906
▁молод	-9.83105
▁маму	-9.8315
▁экс	-9.83151
рма	-9.83172
▁мастер	-9.83177
▁сюда	-9.83248
▁самым	-9.83248
▁начали	-9.83271
▁коло	-9.8334
▁зарплата	-9.83355
вка	-9.83396
чной	-9.83406
щим	-9.83426
▁прям	-9.83427
▁дворе	-9.83563
▁прошу	-9.83587
▁перес	-9.83613
▁приду	-9.83648
▁хи	-9.8365
▁состав	-9.83723
▁ищет	-9.83746
▁коронавирус	-9.83817
пт	-9.83817
▁хорош	-9.83831
вол	-9.83885
▁падает	-9.83938
▁комнате	-9.84008
▁пошла	-9.84034
ходят	-9.84039
енной	-9.84129
▁будильник	-9.84154
▁зеркало	-9.84154
▁строй	-9.84161
▁сахар	-9.84167
▁круж	-9.8417
▁важно	-9.84183
▁просил	-9.84183
реш	-9.84329
▁машин	-9.84339
▁комнату	-9.84373
▁городе	-9.84445
▁самого	-9.84594
▁разные	-9.84608
▁пьют	-9.84649
▁кровати	-9.84692
▁приглаш	-9.84695
▁искать	-9.84702
▁хорошие	-9.8474
▁власть	-9.84799
▁прости	-9.84809
лев	-9.84927
▁волн	-9.85201
пить	-9.8523
▁характер	-9.85232
▁поручик	-9.85235
▁запомни	-9.85235
▁земле	-9.85236
▁звук	-9.85238
▁вывод	-9.85302
лек	-9.85319
▁готовить	-9.85407
▁название	-9.85448
мест	-9.85539
▁пишут	-9.8563
тик	-9.85655
льной	-9.85689
▁счастья	-9.85775
▁жопа	-9.85776
▁грамм	-9.85777
▁говно	-9.85795
▁бомж	-9.85811
▁глазами	-9.85856
телей	-9.85874
иков	-9.85879
▁салат	-9.85913
▁рф	-9.85946
▁работник	-9.86177
▁делал	-9.86195
▁леч	-9.86208
иком	-9.86261
▁сторону	-9.86301
▁василий	-9.86326
▁читал	-9.86364
▁средство	-9.86376
▁начать	-9.86417
▁уходит	-9.86438
▁губ	-9.86504
▁фиг	-9.86518
▁мент	-9.86526
▁шаг	-9.86637
ляет	-9.8665
▁возьми	-9.86669
▁государство	-9.86707
▁сон	-9.86784
▁видите	-9.86823
▁существует	-9.86872
▁жрать	-9.86873
▁больно	-9.86874
▁конкурс	-9.86884
▁словами	-9.86888
ович	-9.86911
▁затем	-9.86948
▁встретил	-9.87054
▁той	-9.87102
▁входит	-9.87271
▁кус	-9.87316
▁новой	-9.8733
▁исчез	-9.87424
▁крокодил	-9.87424
▁российский	-9.87424
▁супруг	-9.87426
▁труб	-9.87465
▁отсутствие	-9.87514
▁вопросы	-9.8754
▁находится	-9.87596
▁минет	-9.87699
льные	-9.87706
▁ци	-9.87721
нным	-9.87746
▁шум	-9.8782
▁коля	-9.87821
▁сторон	-9.87827
▁играет	-9.87938
▁бюджет	-9.87979
▁первую	-9.8798
▁улицу	-9.87986
▁помнишь	-9.87998
▁обязан	-9.88012
▁обезьян	-9.88163
▁дебил	-9.88361
▁любить	-9.88386
▁анти	-9.88442
▁будь	-9.88523
▁довер	-9.88536
▁границ	-9.88537
▁зимой	-9.88538
▁прежде	-9.88539
стью	-9.88539
▁нравятся	-9.88551
▁начинается	-9.88562
▁смотришь	-9.88584
▁сорок	-9.8866
▁получится	-9.88698
▁снял	-9.88712
▁рукой	-9.88817
▁урок	-9.88877
▁миллионов	-9.88921
▁выборы	-9.89031
▁женат	-9.89048
нец	-9.89057
▁годы	-9.89096
водит	-9.89194
▁ссор	-9.8924
▁друзьями	-9.89337
▁оставил	-9.89353
▁моем	-9.89385
▁кровь	-9.8953
бан	-9.8963
▁любите	-9.89663
▁процесс	-9.89665
▁внутри	-9.8967
рг	-9.8968
▁камер	-9.89686
▁стоял	-9.8982
▁звон	-9.90052
▁говорила	-9.90147
▁перестал	-9.90184
▁детям	-9.90233
▁около	-9.90236
▁режим	-9.90236
▁козел	-9.90239
▁добрый	-9.90317
▁древн	-9.90325
вших	-9.90349
▁ногами	-9.90374
▁шуб	-9.90426
истов	-9.90455
▁хй	-9.9053
▁смеш	-9.90552
▁извини	-9.90718
▁неожиданно	-9.90804
▁куп	-9.90824
▁муч	-9.90825
▁кровать	-9.90841
▁далеко	-9.90848
▁скандал	-9.90853
▁дама	-9.90868
▁рука	-9.90869
▁25	-9.90881
▁животных	-9.90912
▁верну	-9.90927
▁снять	-9.90942
▁изменил	-9.91017
▁существ	-9.91059
▁чтоб	-9.91207
▁помните	-9.91273
▁специально	-9.91372
▁солнце	-9.91379
▁орет	-9.91434
десят	-9.91544
чным	-9.91574
▁одев	-9.91586
ктор	-9.91594
▁товар	-9.91613
вернул	-9.91627
▁похож	-9.91636
▁самой	-9.91757
▁достав	-9.91843
▁отцу	-9.91864
▁столе	-9.9187
▁решение	-9.91958
▁вперед	-9.92034
▁забор	-9.92081
▁матом	-9.92084
▁анекдот	-9.92163
нулся	-9.92192
▁грех	-9.92224
кле	-9.92289
▁медведев	-9.92299
▁честь	-9.9247
▁мужиков	-9.92507
тесь	-9.92531
▁финансов	-9.92538
▁пенсию	-9.92539
▁капитан	-9.92539
▁земля	-9.92539
▁гер	-9.92546
▁всякий	-9.92573
▁деда	-9.92593
▁каких	-9.92595
смотр	-9.92597
▁берут	-9.92628
чек	-9.92648
▁уши	-9.92671
▁деньгами	-9.92688
▁весел	-9.92706
▁основ	-9.92752
▁уехал	-9.92759
▁месяца	-9.92922
ового	-9.93094
▁асфальт	-9.93123
▁сиськи	-9.93136
▁показать	-9.93162
сон	-9.93204
▁двумя	-9.93208
пут	-9.9322
▁физик	-9.93392
▁пенсионер	-9.93423
роп	-9.93569
▁обман	-9.93657
▁единственный	-9.93711
▁украина	-9.93711
▁хорошего	-9.93719
▁скажет	-9.93727
▁помни	-9.93763
▁приз	-9.93771
▁высоко	-9.93776
▁зарплаты	-9.93803
▁следует	-9.93817
▁квартиры	-9.93855
▁бур	-9.93963
▁дала	-9.93981
ивается	-9.94037
▁посуду	-9.94051
▁обла	-9.94196
сос	-9.94207
▁москвы	-9.94303
▁туп	-9.94307
▁большие	-9.94309
▁лыс	-9.9433
▁предложение	-9.94341
▁вернулся	-9.94377
вен	-9.94415
▁встреч	-9.94466
лик	-9.94487
▁вниз	-9.94492
слаб	-9.94498
ложить	-9.94592
ющего	-9.94663
▁оба	-9.94678
▁возвраща	-9.94766
▁буратино	-9.94898
▁рецепт	-9.94898
▁сантехник	-9.94898
▁последние	-9.94899
▁дочери	-9.94901
водить	-9.9499
▁магазина	-9.95018
▁дни	-9.9512
▁нашла	-9.95139
▁видеть	-9.95166
▁поняла	-9.95436
▁пив	-9.95457
▁зря	-9.955
▁примета	-9.95503
▁судья	-9.95552
▁фотограф	-9.95585
▁вырос	-9.95613
▁200	-9.95677
▁раздев	-9.95681
гер	-9.95728
мал	-9.95806
▁моих	-9.95821
▁пан	-9.95821
▁умею	-9.95897
▁стан	-9.95988
▁победил	-9.96017
ехал	-9.96035
▁эй	-9.96052
▁раду	-9.96085
▁медленно	-9.961
▁гроб	-9.96103
▁говоришь	-9.96118
▁алкаш	-9.96156
▁шкаф	-9.96171
▁сан	-9.96295
▁взяли	-9.96319
▁конфет	-9.96332
▁кара	-9.96403
▁твое	-9.96479
▁петр	-9.965
▁кис	-9.9662
▁прапорщик	-9.96706
▁увидеть	-9.96706
▁обрати	-9.96712
▁причем	-9.96716
▁попасть	-9.96742
▁доход	-9.96756
вшего	-9.96795
▁душе	-9.96863
▁креп	-9.96981
очек	-9.97029
▁президентом	-9.97083
▁огромн	-9.97138
рад	-9.97153
▁сделала	-9.9721
▁игр	-9.97272
▁бутылки	-9.97316
▁людьми	-9.97316
▁кричал	-9.97316
▁везде	-9.97319
▁помочь	-9.97321
▁труп	-9.97321
▁новость	-9.97326
▁стыдно	-9.97348
▁помогите	-9.9736
▁организм	-9.97432
▁повод	-9.9744
▁большинство	-9.9744
▁ц	-9.97574
▁слез	-9.97599
▁груди	-9.97745
▁пропал	-9.97802
▁позвонил	-9.9782
▁завтрак	-9.97882
▁ящик	-9.97905
ворот	-9.97936
чную	-9.9794
▁виски	-9.97972
бегает	-9.97972
▁сдох	-9.97983
▁медведь	-9.97986
▁забот	-9.9821
дил	-9.98213
▁поставить	-9.98289
▁валя	-9.98361
▁разбил	-9.98373
▁образ	-9.98393
уш	-9.98497
рем	-9.98498
▁жен	-9.98516
▁показывает	-9.98542
▁интеллигент	-9.98546
▁успех	-9.98547
▁мертв	-9.98558
▁пен	-9.98576
▁рыбу	-9.9859
▁добр	-9.98668
▁сайт	-9.98714
▁еле	-9.98734
▁киев	-9.98757
▁собач	-9.98814
лил	-9.98833
▁кури	-9.98836
▁трезв	-9.9891
▁намного	-9.98915
▁говори	-9.98995
▁пляже	-9.99091
зор	-9.99143
▁смех	-9.99176
нной	-9.99188
▁рай	-9.99195
ушки	-9.99252
▁никаких	-9.99278
▁стра	-9.99284
фе	-9.99417
лиц	-9.99427
▁зл	-9.9946
▁делаете	-9.995
▁жили	-9.99536
▁заду	-9.99572
▁козл	-9.9958
▁поход	-9.99615
нц	-9.99708
▁полчаса	-9.99793
▁дождь	-9.99793
▁будущее	-9.99794
▁кле	-9.99842
▁тысячи	-9.99888
▁вторая	-9.99945
▁школьн	-10.0015
▁тепло	-10.0017
▁возраста	-10.0028
▁мужчиной	-10.0033
▁навстречу	-10.0042
▁экран	-10.0042
▁наступил	-10.0042
▁мысль	-10.0043
▁мнение	-10.0044
▁оптимист	-10.0049
▁женщинам	-10.0053
▁работал	-10.0055
▁мыть	-10.0055
▁небо	-10.0056
▁душа	-10.0057
▁кал	-10.0058
▁общего	-10.0064
▁буд	-10.0065
▁серьезно	-10.0065
▁дер	-10.007
▁хер	-10.0071
▁пельмени	-10.0077
▁всему	-10.0081
▁еб	-10.0085
▁каком	-10.0087
▁лежа	-10.0087
▁слышит	-10.0096
▁алкоголик	-10.0105
▁благодаря	-10.0105
▁оргазм	-10.0105
ища	-10.0108
▁полностью	-10.0108
▁сплю	-10.0112
▁трубку	-10.0124
▁языка	-10.0126
казывает	-10.0126
▁сходи	-10.0131
▁здорово	-10.0143
дь	-10.0148
ума	-10.0149
▁взят	-10.0153
▁говорите	-10.0156
▁тя	-10.016
▁лю	-10.016
▁грязн	-10.0162
▁моим	-10.0167
▁пистолет	-10.0169
▁рыбалку	-10.0169
▁пахнет	-10.017
▁владимирович	-10.017
▁иванович	-10.0172
▁сотрудник	-10.0195
▁похорон	-10.0196
▁раб	-10.021
▁старик	-10.0212
▁зашел	-10.0216
кого	-10.0222
▁гражданин	-10.023
▁адвокат	-10.0233
▁вовремя	-10.0233
▁большим	-10.0234
пустить	-10.0243
▁выходные	-10.0246
▁прошел	-10.0248
▁миш	-10.0253
жение	-10.0253
ушку	-10.0263
▁всей	-10.0267
▁сука	-10.027
▁говорили	-10.0277
▁помощь	-10.0279
вис	-10.0288
▁утрам	-10.0289
▁работают	-10.0289
▁депутаты	-10.0292
▁пассажир	-10.0296
▁впервые	-10.0298
▁письмо	-10.0298
▁фразу	-10.0298
▁родителям	-10.0298
▁штаны	-10.0298
▁вызывает	-10.0298
▁стрем	-10.03
▁красивые	-10.0301
▁войны	-10.0301
▁выиграл	-10.0301
▁диване	-10.0302
▁вагон	-10.0302
▁сборной	-10.0305
▁тещу	-10.0308
▁боится	-10.0308
▁запас	-10.0317
▁ем	-10.0318
▁слышу	-10.0322
▁спо	-10.0324
▁живем	-10.033
ньки	-10.0331
▁делаю	-10.0332
▁отключ	-10.035
▁свеч	-10.0357
▁поиск	-10.0358
▁восемь	-10.0362
▁концерт	-10.0366
▁заниматься	-10.0368
▁сбор	-10.0376
▁сдал	-10.0392
▁сообщ	-10.0396
▁встает	-10.04
▁уроке	-10.0409
рд	-10.0418
▁реклама	-10.0428
▁проснулся	-10.0429
▁чемпионат	-10.0432
▁боя	-10.0433
▁руке	-10.0439
▁урод	-10.0439
бежать	-10.0441
лег	-10.0443
▁рога	-10.0444
вание	-10.0448
▁дж	-10.0455
лок	-10.0465
▁пожал	-10.0467
▁лист	-10.0467
▁футболу	-10.047
▁виноват	-10.0481
▁придумали	-10.0482
▁угол	-10.0484
▁держит	-10.0491
имся	-10.0493
▁премьер	-10.0494
▁маленькие	-10.0494
▁повезло	-10.0494
▁кстати	-10.0494
▁беседуют	-10.0494
▁бабушки	-10.0496
▁означает	-10.0497
▁ищу	-10.0505
▁разу	-10.0515
▁другое	-10.052
цов	-10.0531
▁игры	-10.0535
▁колбас	-10.0535
▁маршрут	-10.0552
дн	-10.0559
▁просыпается	-10.056
▁удивля	-10.056
▁предмет	-10.056
▁темно	-10.0562
▁спросить	-10.0574
▁приносит	-10.0575
▁сверху	-10.0581
▁требуется	-10.0581
ните	-10.0582
▁общ	-10.059
▁послал	-10.0592
▁турист	-10.0597
▁книги	-10.0597
▁интернета	-10.0599
▁дев	-10.0605
рки	-10.0617
▁вась	-10.0622
▁площад	-10.0627
▁прочитал	-10.0627
▁привык	-10.0629
▁трое	-10.0638
долго	-10.0639
▁реп	-10.0645
▁растет	-10.0656
▁сделали	-10.0661
ологи	-10.0664
защит	-10.0664
▁клад	-10.0672
▁подо	-10.0681
▁тв	-10.0681
ставляет	-10.0685
▁нрав	-10.069
▁автомобиля	-10.0694
▁происходит	-10.0694
▁оружие	-10.0694
▁память	-10.0694
▁кролик	-10.0694
▁возрасте	-10.0707
▁корм	-10.0715
▁положил	-10.0715
▁ряд	-10.0731
енька	-10.0732
щает	-10.0739
▁выходить	-10.0742
▁коров	-10.0742
▁ракет	-10.0742
шая	-10.0747
▁тормоз	-10.0747
▁любовью	-10.0754
▁жду	-10.0757
▁бухгалтер	-10.0761
▁населения	-10.0761
▁деду	-10.0763
▁этому	-10.0763
▁учиться	-10.0763
▁задницу	-10.0764
фон	-10.0766
вшим	-10.0767
русски	-10.0772
▁твоего	-10.0776
рев	-10.0777
▁супер	-10.0779
▁собирается	-10.0783
▁слеп	-10.0783
▁необходимо	-10.0784
▁посыл	-10.0791
ацию	-10.0799
▁автомат	-10.0809
овое	-10.0811
▁взяла	-10.0812
▁плав	-10.082
кар	-10.0824
▁плохой	-10.0824
▁резко	-10.0825
▁врачи	-10.0829
▁корпоратив	-10.0829
▁порядке	-10.0829
▁практически	-10.0829
▁беременна	-10.083
▁вторую	-10.083
▁гарант	-10.083
▁научи	-10.0841
▁круто	-10.0845
▁лоб	-10.0856
▁добав	-10.0866
▁слышали	-10.0867
▁дух	-10.0867
▁коронавируса	-10.0872
енных	-10.0883
▁могла	-10.0888
▁имею	-10.0888
▁бутылка	-10.0898
▁детства	-10.0898
▁рулем	-10.0898
▁увидев	-10.0898
▁полиция	-10.0898
▁видимо	-10.0899
▁ванной	-10.0902
▁старости	-10.0905
▁пляж	-10.0907
▁салон	-10.0909
▁отправил	-10.0915
▁май	-10.093
если	-10.0932
▁чиновники	-10.0938
▁видео	-10.0946
▁качестве	-10.0951
копа	-10.0951
фер	-10.0956
▁переста	-10.0961
▁короче	-10.0967
ический	-10.0967
▁глух	-10.0971
▁ждать	-10.0973
бой	-10.0974
▁твор	-10.0976
ган	-10.0977
▁кошку	-10.0978
▁потеря	-10.0978
ун	-10.0982
▁бросить	-10.0984
▁опер	-10.0986
▁готовит	-10.099
▁главный	-10.0991
▁видела	-10.1003
▁части	-10.1006
▁кук	-10.1009
тряс	-10.1017
шел	-10.1017
▁сожалению	-10.1037
▁хакер	-10.1038
▁половина	-10.1039
▁болт	-10.104
▁чиновников	-10.1053
▁указ	-10.1057
буд	-10.1061
▁треть	-10.1074
▁кана	-10.1074
▁положи	-10.1087
▁вернуть	-10.1089
▁армию	-10.1106
▁оттуда	-10.1107
▁группа	-10.111
дж	-10.1119
▁приходят	-10.1132
▁считается	-10.1147
▁смерть	-10.1158
▁россияне	-10.1162
▁паль	-10.1165
▁центр	-10.1166
▁ясно	-10.1175
один	-10.1176
▁назвать	-10.1178
▁торгов	-10.1179
овали	-10.1184
▁попробуйте	-10.1185
ивая	-10.1186
▁путь	-10.1188
▁родила	-10.1198
▁головы	-10.1213
▁отдал	-10.1221
▁пей	-10.1246
▁супермаркет	-10.1248
▁таблетки	-10.1248
▁челябинск	-10.1248
▁слушать	-10.1248
▁редко	-10.1248
▁крайне	-10.125
▁опасно	-10.1252
▁пытается	-10.1257
▁ровно	-10.1262
▁цвета	-10.1268
уха	-10.1281
носить	-10.1284
▁баран	-10.1287
енко	-10.1303
▁собрал	-10.1312
▁топор	-10.1316
резал	-10.1317
▁еврея	-10.1319
▁свидание	-10.1319
▁желания	-10.1319
▁нефть	-10.1322
▁сне	-10.1329
▁лень	-10.1333
▁пря	-10.1336
▁служб	-10.1354
▁штирлица	-10.1355
▁позвол	-10.1363
▁каждо	-10.1364
▁яблок	-10.139
▁медицинск	-10.1391
▁баксов	-10.1392
▁вашем	-10.1393
▁скучно	-10.1395
▁парню	-10.1395
▁имел	-10.1404
▁поднимает	-10.1405
▁запис	-10.141
бирать	-10.1412
▁папу	-10.1412
▁производств	-10.1414
яться	-10.1427
▁журналист	-10.1433
кает	-10.1439
▁зоопарк	-10.1441
▁рос	-10.1458
▁евреи	-10.1463
▁истории	-10.1463
▁кандидат	-10.1463
▁агент	-10.1463
▁зима	-10.1464
▁гараж	-10.1466
▁париж	-10.1467
▁слышь	-10.1469
илось	-10.1473
щему	-10.1477
▁кост	-10.1482
▁впереди	-10.1483
▁помощью	-10.1485
иваются	-10.1488
▁играют	-10.1498
тельная	-10.1502
▁лук	-10.1507
▁рассказал	-10.1507
▁спрашиваю	-10.1509
▁требует	-10.1513
▁народа	-10.1515
бар	-10.1519
▁встречает	-10.152
▁зараз	-10.1523
▁семьи	-10.1531
▁слава	-10.1536
▁закрыл	-10.1536
▁взросл	-10.1536
▁свадьбе	-10.1536
▁землю	-10.1536
▁штраф	-10.1536
▁микро	-10.1539
▁достиг	-10.154
первых	-10.154
▁голов	-10.1541
▁белье	-10.1542
▁разговаривает	-10.1547
бал	-10.1548
▁тещи	-10.1549
▁читаю	-10.1553
▁хм	-10.1555
▁вечера	-10.1556
▁выбрал	-10.1558
▁понимает	-10.1559
мужик	-10.157
▁общем	-10.1576
бью	-10.1578
▁баре	-10.1578
строй	-10.1579
▁шести	-10.159
▁поднял	-10.1596
▁носить	-10.1597
кри	-10.1599
▁никакой	-10.16
▁чи	-10.1604
ланд	-10.1609
▁кольцо	-10.161
▁начнет	-10.1611
▁молодец	-10.1613
▁действ	-10.1615
▁лун	-10.1616
▁состоит	-10.1618
▁человеческ	-10.162
▁называл	-10.1621
▁радость	-10.1623
шить	-10.1624
▁кошки	-10.1627
▁пут	-10.1627
▁другая	-10.1634
▁умная	-10.1634
▁государственн	-10.1637
ющая	-10.1645
▁север	-10.1648
▁отдых	-10.1649
▁виду	-10.165
▁презервативы	-10.1663
▁гар	-10.1664
▁плюс	-10.1665
▁деревне	-10.1684
▁каждая	-10.1684
▁хлоп	-10.1684
▁прекрати	-10.1685
▁чему	-10.1693
▁подарить	-10.1694
пят	-10.1706
▁курит	-10.171
▁невест	-10.1712
▁кругл	-10.1714
олод	-10.172
▁надел	-10.1723
▁думала	-10.1724
▁вести	-10.173
▁стран	-10.174
▁получает	-10.1746
▁смотрите	-10.1747
▁матч	-10.175
▁благо	-10.1758
▁настоящая	-10.1759
▁парикмахер	-10.1759
▁появился	-10.1759
▁картошку	-10.1759
▁митинг	-10.1759
▁рынке	-10.1759
▁пенсии	-10.1759
▁санкции	-10.1759
▁201	-10.1762
моему	-10.1763
▁вокзал	-10.1763
▁полез	-10.1765
▁американск	-10.1773
▁всеми	-10.1785
▁создал	-10.179
▁лифте	-10.1796
▁лифт	-10.1799
▁бой	-10.1801
▁стоять	-10.1801
▁опоздал	-10.1807
▁едут	-10.1813
▁полно	-10.1816
тащил	-10.1818
▁красивой	-10.1818
▁находит	-10.1826
▁внимательно	-10.1834
▁некоторых	-10.1834
▁олигарх	-10.1834
▁спортсмен	-10.1834
▁подумать	-10.1834
▁едят	-10.1834
▁поможет	-10.1834
▁роман	-10.1834
▁полиции	-10.1834
▁помощи	-10.1834
▁жертв	-10.1836
▁банан	-10.1836
▁растут	-10.1837
▁протест	-10.1839
▁скр	-10.1844
▁наук	-10.1863
▁журнал	-10.1866
▁пояс	-10.1893
нюю	-10.1897
▁возьму	-10.191
▁кушать	-10.191
▁сторож	-10.191
▁гроз	-10.191
шим	-10.1912
▁соседка	-10.192
▁ученик	-10.1921
▁соседа	-10.1923
▁женский	-10.1925
▁новым	-10.1926
▁понимаете	-10.1933
▁дорогие	-10.1939
▁предлагаю	-10.1943
▁забыв	-10.1949
льную	-10.1953
▁телевизору	-10.1953
▁приятн	-10.1954
▁посмотрите	-10.1955
▁ударил	-10.1956
▁уме	-10.196
жут	-10.196
▁кач	-10.1964
▁офис	-10.1966
▁пит	-10.1967
▁аэропорт	-10.1986
▁февраля	-10.1986
▁дневник	-10.1986
▁полгода	-10.1986
▁число	-10.1987
▁чудес	-10.1987
▁мозги	-10.199
▁папы	-10.1991
бель	-10.1993
▁матер	-10.1995
▁ды	-10.1998
▁намек	-10.2
▁карты	-10.2002
▁бок	-10.2009
▁ужасно	-10.2009
▁сделаю	-10.2011
жусь	-10.2011
стает	-10.2014
водят	-10.2023
▁правила	-10.2025
▁плю	-10.2025
▁существо	-10.2028
▁богу	-10.2049
▁провел	-10.2049
▁шубу	-10.2059
▁болезнь	-10.2063
▁ощущение	-10.2063
▁сидишь	-10.2063
▁покупает	-10.2063
▁можем	-10.2063
▁интим	-10.2063
▁сериал	-10.2064
▁запрет	-10.2064
▁огород	-10.2064
▁палец	-10.2068
▁моему	-10.2068
▁спишь	-10.2072
▁чудо	-10.2073
▁объявил	-10.2076
▁ночам	-10.2076
▁таксист	-10.2078
▁полный	-10.2084
▁колен	-10.2084
▁залез	-10.2088
▁слабо	-10.209
▁старше	-10.2091
▁удовольствие	-10.2103
▁моня	-10.2104
ающий	-10.2106
▁папе	-10.211
▁забрал	-10.211
мент	-10.2116
▁прошлом	-10.2121
▁спроси	-10.2123
▁мамой	-10.2126
▁бит	-10.2133
▁кладбище	-10.214
▁фамилия	-10.214
▁сергей	-10.214
▁вещь	-10.214
▁одесск	-10.214
▁жопе	-10.2141
▁масло	-10.2141
▁сестра	-10.2144
еры	-10.2144
▁сделан	-10.2145
▁банке	-10.2145
▁овощ	-10.2146
енным	-10.2147
голос	-10.2149
▁слух	-10.215
▁месяцев	-10.2154
▁крыс	-10.2159
▁мобильник	-10.216
был	-10.2162
нице	-10.2162
▁лежат	-10.2166
▁дне	-10.2167
▁никакого	-10.2168
▁кида	-10.2174
▁остров	-10.2175
ирую	-10.2179
▁верх	-10.2185
▁квартира	-10.2195
щую	-10.2197
бин	-10.2202
▁проход	-10.2204
ены	-10.2206
▁шарик	-10.2215
▁знала	-10.2217
▁вполне	-10.2219
▁космонавт	-10.2219
▁сильнее	-10.2219
▁популярн	-10.2219
▁надеюсь	-10.2219
▁погода	-10.2221
▁лыж	-10.2229
▁опа	-10.2232
ировали	-10.2233
▁кончил	-10.224
через	-10.224
▁ежик	-10.2248
▁привез	-10.2252
▁хор	-10.2253
▁похожи	-10.2254
▁нашу	-10.2264
▁приход	-10.2273
▁страну	-10.2281
ющим	-10.2283
▁свер	-10.2285
тельный	-10.2286
▁электро	-10.2289
▁радостно	-10.2293
▁мерседес	-10.2297
▁правительства	-10.2297
▁ехать	-10.2297
▁список	-10.2297
▁дольше	-10.2297
▁провести	-10.2297
▁карьер	-10.2298
▁подошел	-10.2298
▁признак	-10.2299
▁роддом	-10.2299
▁состоянии	-10.2299
▁тянет	-10.23
▁продал	-10.2302
ответ	-10.2307
▁вовсе	-10.231
▁диск	-10.2324
рожден	-10.2334
берите	-10.2337
▁замет	-10.2339
▁бьет	-10.2343
▁ско	-10.2358
▁пошл	-10.2362
вот	-10.2366
чного	-10.2376
▁маленьким	-10.2377
▁сволочь	-10.2377
▁услышал	-10.2377
▁испуга	-10.2377
▁еды	-10.2381
▁трус	-10.2384
▁вызвал	-10.2384
▁союз	-10.2388
▁расход	-10.2391
▁выборах	-10.2393
▁берег	-10.2395
▁пивом	-10.24
▁налог	-10.2403
▁держи	-10.2403
▁питер	-10.2411
▁ждут	-10.2415
нную	-10.2419
▁ключ	-10.2424
▁ран	-10.2428
▁крови	-10.2431
ляют	-10.2437
▁коллег	-10.244
▁очки	-10.2446
ься	-10.2449
▁примерно	-10.2451
▁приходил	-10.2453
▁вверх	-10.2457
▁дерьмо	-10.2457
▁ближе	-10.2457
▁детство	-10.2457
▁рис	-10.2458
▁садится	-10.2464
▁знакомств	-10.2465
▁боятся	-10.2468
▁остается	-10.2469
▁хитр	-10.247
▁бесит	-10.2473
▁корова	-10.2475
▁души	-10.2477
▁останавливает	-10.248
▁возможность	-10.2483
▁определить	-10.2489
▁морг	-10.249
▁полз	-10.2493
▁брал	-10.2495
▁достает	-10.2497
▁поступ	-10.2521
▁гал	-10.2529
▁бумаги	-10.2537
▁лучшие	-10.2537
▁снимает	-10.2541
▁дешевле	-10.2541
▁которому	-10.2543
▁разговаривать	-10.2544
▁закрыт	-10.2544
▁посл	-10.2548
ывая	-10.2548
▁работаешь	-10.2558
▁очередной	-10.2565
▁разум	-10.2565
дор	-10.2584
▁рев	-10.2588
▁причина	-10.2591
▁шест	-10.2593
▁убить	-10.2594
▁рабоч	-10.26
▁отказа	-10.2607
▁поводу	-10.2609
▁смартфон	-10.2619
▁специалист	-10.2619
▁одноклассник	-10.2619
▁транспорт	-10.2619
▁пойдет	-10.2619
▁получилось	-10.2623
▁встретились	-10.2624
▁страшная	-10.2629
▁завис	-10.2632
гло	-10.2637
▁ри	-10.2637
чика	-10.2645
енькая	-10.2645
▁продавец	-10.2649
▁купили	-10.2651
▁наруш	-10.2654
▁учит	-10.2659
кнул	-10.266
▁бил	-10.266
▁образом	-10.2661
рку	-10.267
▁фильма	-10.2675
▁классе	-10.2678
тянул	-10.2683
есь	-10.2687
▁подряд	-10.2701
▁угодно	-10.2701
▁заболел	-10.2701
▁дважды	-10.2701
▁стекло	-10.2702
▁холодильнике	-10.2702
▁берегу	-10.2703
▁лицом	-10.2704
▁ездить	-10.2705
▁птич	-10.2706
▁бармен	-10.2709
▁состояние	-10.2709
▁выходят	-10.2716
▁особо	-10.2719
▁выдал	-10.2719
▁сходить	-10.2733
бивать	-10.2733
▁лох	-10.2737
сек	-10.2758
вшийся	-10.2768
▁держа	-10.2768
▁сигареты	-10.2772
▁спросили	-10.2781
пред	-10.2782
▁американцы	-10.2783
▁внезапно	-10.2783
▁военкомат	-10.2783
▁джентльмен	-10.2783
▁кошелек	-10.2783
▁москву	-10.2783
▁насколько	-10.2783
▁свободно	-10.2783
▁успешно	-10.2783
▁уровень	-10.2783
▁музыку	-10.2783
▁валуев	-10.2783
▁заряд	-10.2783
▁второго	-10.2784
▁гран	-10.2785
▁идешь	-10.2787
▁парке	-10.2787
▁лице	-10.2788
класс	-10.2794
▁война	-10.2796
▁ждал	-10.2804
▁пути	-10.2809
▁француз	-10.2813
▁морд	-10.2823
▁командир	-10.2823
▁поступил	-10.2827
▁замужем	-10.2838
▁банка	-10.2839
▁состоя	-10.2841
пок	-10.2841
▁маски	-10.2843
▁верит	-10.2845
▁мозга	-10.2851
▁марк	-10.2859
▁искал	-10.286
▁держать	-10.2861
▁разных	-10.2864
▁памятник	-10.2866
▁свадьбу	-10.2866
▁порошенко	-10.2867
▁учителя	-10.2867
▁открываю	-10.2868
▁принципе	-10.2868
▁пойму	-10.2869
▁пойти	-10.287
когда	-10.2872
▁куплю	-10.2873
▁договор	-10.2875
гнать	-10.2881
овым	-10.2884
▁показывают	-10.2891
▁твоем	-10.2895
зова	-10.2898
▁положить	-10.2901
цами	-10.2912
все	-10.2918
▁бабу	-10.2933
▁обеда	-10.2937
▁свят	-10.2938
▁любом	-10.2944
▁диплом	-10.2944
▁диалог	-10.2951
▁уважаемые	-10.2951
▁большое	-10.2951
▁робот	-10.2951
▁сильный	-10.2951
льник	-10.2952
▁мечты	-10.2953
▁китае	-10.2955
ших	-10.2959
▁пресс	-10.2961
▁хорошей	-10.2962
▁рубль	-10.2963
▁пробовал	-10.2964
▁бомб	-10.2967
енький	-10.2967
прыг	-10.2969
анный	-10.2972
▁звонил	-10.2979
▁возьмите	-10.2982
▁каждым	-10.2982
▁плачет	-10.2986
пишите	-10.2986
▁белом	-10.2987
живает	-10.2995
▁также	-10.2997
▁мужской	-10.3
ливает	-10.3
▁соседей	-10.3001
▁брачн	-10.3003
▁четверт	-10.3003
▁беспоко	-10.3003
▁ого	-10.3012
▁вспомнил	-10.3015
▁дуб	-10.3031
▁коллектив	-10.3035
▁неплохо	-10.3035
▁тридцать	-10.3035
▁космос	-10.3035
▁табличк	-10.3035
▁чемодан	-10.3035
▁жители	-10.3035
▁вызов	-10.3036
▁желез	-10.3037
▁фима	-10.3038
▁стене	-10.3041
▁пр	-10.3042
▁английск	-10.305
ющей	-10.3058
▁приеме	-10.3059
▁белый	-10.3061
▁минуты	-10.3074
▁продать	-10.3084
▁брит	-10.3087
ической	-10.3094
▁мак	-10.3095
▁топ	-10.3098
▁сломал	-10.3102
тирать	-10.3107
▁волшебн	-10.3121
▁исключительно	-10.3121
▁милиционер	-10.3121
▁напоминает	-10.3121
▁ненавижу	-10.3121
▁ошибки	-10.3121
▁удивительно	-10.3121
▁погиб	-10.3121
▁безопасности	-10.3122
▁сезон	-10.3123
▁языке	-10.3123
▁больнице	-10.3123
▁надежн	-10.3123
нить	-10.3124
▁давать	-10.3125
изма	-10.3126
▁умеешь	-10.3127
▁препод	-10.3128
ниц	-10.3131
▁веду	-10.3133
которое	-10.3135
вовочка	-10.3136
▁метров	-10.3138
летает	-10.314
▁белые	-10.3141
▁игру	-10.3146
альный	-10.3148
▁бежит	-10.3152
▁открыть	-10.3158
▁московск	-10.3163
▁забыла	-10.3178
▁мечтал	-10.3184
деть	-10.3194
▁девят	-10.3194
▁симпатичн	-10.3195
оваться	-10.3205
▁кирпич	-10.3207
▁обнаружен	-10.3207
▁свадьба	-10.3207
▁каждую	-10.3207
▁становятся	-10.3207
▁коридор	-10.3207
▁фсб	-10.3207
пускает	-10.3209
казывал	-10.3209
▁заканчивается	-10.3213
▁останови	-10.3214
вязан	-10.3218
▁взрыв	-10.3226
▁петя	-10.323
▁книга	-10.3232
фри	-10.3235
▁красный	-10.3236
▁похожа	-10.324
▁пригласил	-10.3241
изация	-10.3246
▁начальника	-10.3255
▁налогов	-10.3259
▁медведя	-10.3262
▁глупо	-10.3274
▁знали	-10.328
▁результате	-10.3284
▁тела	-10.3291
▁порядочн	-10.3294
▁сержант	-10.3294
▁одеяло	-10.3294
▁никуда	-10.3294
▁цифр	-10.3294
▁мудак	-10.3296
▁делятся	-10.3298
бив	-10.3309
▁ехал	-10.3311
▁призыв	-10.3313
▁дороже	-10.3317
▁продукты	-10.3323
пать	-10.3325
▁написать	-10.3336
кли	-10.3336
дите	-10.3336
вает	-10.3339
▁горит	-10.3344
драж	-10.3344
▁хожу	-10.3348
▁спине	-10.3352
писать	-10.3358
▁принято	-10.3361
▁перевод	-10.3362
▁подъезде	-10.3362
▁тупо	-10.3363
▁страниц	-10.3369
▁внутренн	-10.3377
▁отечественн	-10.3382
▁глубоко	-10.3382
▁оказался	-10.3382
▁предупрежда	-10.3382
▁кухню	-10.3382
▁монитор	-10.3382
▁адрес	-10.3382
▁охотник	-10.3382
▁принимать	-10.3382
▁снизу	-10.3382
▁съем	-10.3382
▁появляется	-10.3384
▁начинаю	-10.3387
▁мамочка	-10.3388
▁бить	-10.339
▁признал	-10.339
уль	-10.3392
▁животное	-10.3392
▁довольно	-10.3396
▁воров	-10.3396
▁дачу	-10.3397
▁придумал	-10.3398
▁незнаком	-10.3402
▁неправильно	-10.3403
▁храп	-10.3404
пел	-10.3406
беру	-10.3407
▁принять	-10.3419
▁руч	-10.3422
▁спросила	-10.3427
▁весна	-10.3428
дон	-10.3432
▁семи	-10.3435
▁немец	-10.3437
▁петь	-10.3445
▁норм	-10.3447
▁баш	-10.3458
▁попробуй	-10.3459
▁пессимист	-10.347
▁температур	-10.347
▁террорист	-10.347
▁церковь	-10.347
▁января	-10.347
▁мешает	-10.347
▁строит	-10.3471
▁водкой	-10.3471
▁операции	-10.3471
▁девочку	-10.3472
▁выражение	-10.3472
▁тренер	-10.3473
▁минус	-10.3473
▁построил	-10.3477
▁бара	-10.3478
▁сила	-10.348
▁рубля	-10.3483
▁петька	-10.349
▁кг	-10.3491
▁мило	-10.3492
▁черная	-10.3496
▁кормить	-10.3496
▁пятый	-10.3502
даст	-10.3526
▁упала	-10.3548
▁сделай	-10.3549
групп	-10.3554
▁алкоголя	-10.3559
▁аптеке	-10.3559
▁настоящие	-10.3559
▁аппарат	-10.3559
▁собчак	-10.3559
▁парадокс	-10.3559
▁пальцем	-10.356
▁понимать	-10.356
▁женская	-10.3562
▁образование	-10.357
▁назвали	-10.357
▁стер	-10.3577
ляп	-10.359
▁конь	-10.3598
▁поднять	-10.3599
▁летит	-10.3606
альная	-10.3609
айтесь	-10.3611
▁душу	-10.3617
▁найдет	-10.3628
▁беда	-10.3639
▁узнала	-10.3639
▁америке	-10.365
▁философ	-10.365
▁лондон	-10.365
▁половину	-10.3652
▁компания	-10.3652
▁школа	-10.3652
▁высоки	-10.3653
▁идите	-10.3656
▁живешь	-10.3671
кто	-10.3676
▁российского	-10.3677
▁ивановна	-10.3678
▁видят	-10.3678
плю	-10.368
▁народу	-10.3688
▁гриб	-10.3694
▁минуту	-10.3697
▁поняли	-10.3705
▁граб	-10.3713
▁морду	-10.3718
▁акт	-10.3724
▁пожалуй	-10.3737
это	-10.3739
▁несчастн	-10.374
▁история	-10.374
▁появилась	-10.374
▁лошади	-10.374
▁водителя	-10.374
▁убивает	-10.3741
▁подожди	-10.3741
▁букет	-10.3741
▁остальное	-10.3742
▁расста	-10.3742
▁500	-10.3743
▁вышли	-10.3743
▁надоело	-10.3743
▁посети	-10.3744
▁мяса	-10.3749
▁начинаешь	-10.375
▁форму	-10.375
чивает	-10.3761
енную	-10.3773
дит	-10.3774
▁поговорить	-10.3775
▁лайк	-10.3776
▁единственное	-10.378
▁литр	-10.3782
▁количеств	-10.3792
веди	-10.3796
▁считаю	-10.38
▁объявлен	-10.3802
▁футболист	-10.3803
▁курил	-10.3804
▁детском	-10.3805
сер	-10.3813
▁целую	-10.3816
▁заканчива	-10.3826
док	-10.3829
резать	-10.383
▁впечатление	-10.3832
▁предлагает	-10.3832
▁троллейбус	-10.3832
▁услышать	-10.3832
▁порядок	-10.3832
▁минимум	-10.3832
▁ватсон	-10.3832
▁умереть	-10.3833
▁тетя	-10.3834
▁подруге	-10.3834
▁вампир	-10.3837
▁войну	-10.3838
▁лечить	-10.384
▁зависит	-10.384
▁боксер	-10.3844
ителем	-10.3854
▁штук	-10.3858
альным	-10.3863
▁качеств	-10.3866
валась	-10.3867
▁бери	-10.3871
▁слона	-10.3871
▁боев	-10.3873
▁золото	-10.3893
▁куст	-10.3901
▁ставить	-10.3901
▁захват	-10.3907
▁вова	-10.3908
жат	-10.3909
▁цель	-10.3911
▁соли	-10.3921
▁фран	-10.3924
▁кинотеатр	-10.3925
▁лучшая	-10.3925
▁мотоцикл	-10.3925
▁поскольку	-10.3925
▁николай	-10.3925
▁больницу	-10.3926
▁бьют	-10.3927
шие	-10.3929
▁вкусно	-10.393
▁признан	-10.393
▁менять	-10.393
▁молчит	-10.3931
фиц	-10.3932
▁речь	-10.3939
▁тигр	-10.3947
▁тараканы	-10.3952
▁нагл	-10.3953
▁подъезда	-10.3957
▁сложн	-10.3958
▁этажа	-10.3969
▁сумо	-10.3973
▁общественно	-10.398
▁посуд	-10.399
▁твоих	-10.3992
прашива	-10.3993
▁парни	-10.3995
▁заходи	-10.4002
▁смотря	-10.4008
ставьте	-10.4013
▁вина	-10.4016
▁пили	-10.4017
▁принцип	-10.4017
▁вынужден	-10.4018
▁одолжи	-10.4018
▁доступ	-10.4018
▁уменьш	-10.4018
▁внимания	-10.4018
▁лифчик	-10.4018
▁кассир	-10.4018
▁курорт	-10.4019
▁молодости	-10.4021
▁найден	-10.4021
▁русская	-10.4021
▁здоровья	-10.4023
▁национально	-10.4025
▁старая	-10.4027
▁пытался	-10.4028
ическая	-10.4033
▁ванну	-10.4037
▁стой	-10.4045
▁район	-10.4049
▁собакой	-10.4052
▁актер	-10.4055
гна	-10.406
правлен	-10.4074
▁школьник	-10.4079
▁тупой	-10.408
▁выборов	-10.4082
пускать	-10.4094
▁пад	-10.4105
▁спальн	-10.4105
▁продав	-10.4106
▁наташа	-10.4111
▁пешеход	-10.4113
▁реформ	-10.4113
▁подскажите	-10.4113
▁цыган	-10.4113
▁пьешь	-10.4113
▁земли	-10.4113
▁прикинь	-10.4113
▁новогодни	-10.4115
▁съесть	-10.4115
▁рассказать	-10.4116
▁полковник	-10.4123
ведения	-10.4125
▁ветер	-10.4127
свет	-10.4138
▁обход	-10.4141
▁дума	-10.4144
▁пообещал	-10.4155
▁надеть	-10.416
▁чувства	-10.4164
▁похороны	-10.4168
▁столом	-10.4171
▁стану	-10.4171
▁ворон	-10.4184
▁муз	-10.4189
евич	-10.4189
▁хран	-10.4193
▁силы	-10.4198
▁душ	-10.4198
▁думали	-10.4205
▁кармане	-10.4205
▁ведет	-10.4207
▁напротив	-10.4208
▁согласно	-10.4208
▁осозна	-10.4208
▁положение	-10.4208
▁одинаковы	-10.4208
▁сутки	-10.4209
▁пятницу	-10.421
▁трампа	-10.4213
▁женаты	-10.4217
▁плот	-10.4225
▁студента	-10.423
теперь	-10.4233
▁понимают	-10.4242
▁хрена	-10.4249
▁мэр	-10.425
падет	-10.4251
▁имени	-10.4255
▁склад	-10.4262
▁хлеба	-10.4264
▁бывший	-10.4266
▁поля	-10.4271
▁делали	-10.4272
▁самогон	-10.4272
бросил	-10.428
▁пусты	-10.429
▁смогу	-10.4292
льный	-10.4295
▁папой	-10.4299
▁москвич	-10.4304
▁наполовину	-10.4304
▁нынешн	-10.4304
▁появились	-10.4304
настоящему	-10.4304
▁москва	-10.4304
▁детьми	-10.4304
▁узнаю	-10.4305
▁флаг	-10.4305
▁прожить	-10.4305
▁коротко	-10.4305
▁понравилось	-10.4305
▁водой	-10.4307
▁узнав	-10.4311
▁фотографии	-10.4311
▁хорошим	-10.4318
▁писал	-10.4321
вела	-10.4325
щем	-10.4325
▁непонятно	-10.4331
▁больного	-10.434
▁лежать	-10.434
мешал	-10.4343
▁обид	-10.4345
▁мяч	-10.4358
▁принц	-10.4359
▁лад	-10.436
▁стук	-10.4362
▁наркотики	-10.4367
▁лидер	-10.4369
▁сало	-10.4377
▁обои	-10.4384
▁посе	-10.4386
поль	-10.4395
▁единственная	-10.4401
▁аптеку	-10.4401
▁детский	-10.4401
▁израиль	-10.4401
▁современны	-10.4403
▁мост	-10.4403
▁свинья	-10.4406
▁огонь	-10.4407
▁готовы	-10.4407
▁найду	-10.4411
▁маршрутке	-10.4413
▁прогул	-10.4418
▁приезжает	-10.4419
рва	-10.4424
▁коллега	-10.4424
▁опытный	-10.4433
день	-10.4437
▁пальто	-10.4439
▁ваня	-10.4444
▁каждому	-10.4454
▁умеют	-10.4455
▁депутатов	-10.4469
▁устав	-10.4472
ицей	-10.4477
▁полная	-10.4492
▁период	-10.4495
▁захотел	-10.4498
▁вариант	-10.4499
▁инспектор	-10.4499
▁ноутбук	-10.4499
▁комплекс	-10.4499
▁помещ	-10.4499
▁рекорд	-10.4499
ведение	-10.4502
▁сообщение	-10.4502
▁будущем	-10.4504
▁решить	-10.4505
▁зять	-10.4506
▁петух	-10.4508
▁форма	-10.4512
ящий	-10.4512
▁менеджер	-10.4512
▁пункт	-10.4512
▁идея	-10.4513
▁заметку	-10.452
▁офисе	-10.4524
▁найдется	-10.4524
▁толстая	-10.4525
▁услуг	-10.4525
▁морде	-10.4526
йдите	-10.4533
▁шоу	-10.4541
▁народная	-10.4542
▁суббот	-10.4544
▁отказ	-10.4555
▁верю	-10.4565
▁граф	-10.4568
▁зале	-10.457
▁яша	-10.4576
▁уголовн	-10.4579
▁глазах	-10.458
▁мужику	-10.4581
▁прошла	-10.4585
▁суде	-10.459
▁подход	-10.4591
▁актив	-10.4592
▁ссы	-10.4598
▁пойдешь	-10.4598
▁просьба	-10.4598
▁холмс	-10.4598
▁расстраива	-10.4598
▁бабушке	-10.4599
▁пятьдесят	-10.4601
▁женской	-10.4602
▁дому	-10.4607
пере	-10.4609
▁мах	-10.461
ступать	-10.4613
льного	-10.4614
▁весело	-10.4616
▁семен	-10.4617
▁устроил	-10.462
▁карантин	-10.4625
▁рим	-10.4628
▁зоопарке	-10.4629
▁утренн	-10.4632
▁комар	-10.4635
▁прихожу	-10.4635
▁воспитан	-10.4641
▁запрещ	-10.4642
▁начнут	-10.4651
▁садик	-10.4653
▁риск	-10.4656
▁грустно	-10.4666
даешь	-10.4674
▁мини	-10.4677
▁экономическ	-10.4678
▁пик	-10.4686
▁штука	-10.4688
▁череп	-10.469
▁мона	-10.4693
▁интеллект	-10.4693
▁светло	-10.4693
▁грипп	-10.4698
▁немедленно	-10.4698
▁познакомиться	-10.4698
▁ситуации	-10.4698
▁офицер	-10.4698
▁пароль	-10.4698
▁завести	-10.4699
▁десяти	-10.47
▁джон	-10.47
ляр	-10.4701
▁космическ	-10.4703
▁саду	-10.4703
▁красивый	-10.4704
▁действия	-10.4706
▁попросила	-10.4707
▁менее	-10.4708
▁примет	-10.471
▁форме	-10.4715
▁принимает	-10.4715
ливать	-10.4715
▁имеют	-10.4717
▁директора	-10.472
▁спортивн	-10.4721
▁собирать	-10.4725
▁зол	-10.4728
▁красоты	-10.4733
▁пациента	-10.4733
культур	-10.4746
▁дорога	-10.4748
курс	-10.4752
▁серьез	-10.4755
зве	-10.4757
▁остановил	-10.4768
▁дурака	-10.4778
▁правой	-10.4779
бирают	-10.4784
ические	-10.4788
▁ставит	-10.4788
ностью	-10.4791
▁семейн	-10.4792
▁сталин	-10.4796
▁долги	-10.4796
▁тю	-10.4797
▁александр	-10.4799
▁бутерброд	-10.4799
▁многих	-10.4799
▁украину	-10.4799
▁шашлык	-10.4799
▁батюшка	-10.4799
▁двоих	-10.4799
▁стесня	-10.4799
▁ошибка	-10.4799
▁остановке	-10.4799
▁узнает	-10.4799
▁висит	-10.4799
▁изменяет	-10.48
▁сделает	-10.48
▁гулять	-10.48
▁пройти	-10.48
▁лежал	-10.4801
▁фонд	-10.4803
▁везет	-10.4803
▁умным	-10.4806
ступить	-10.4808
консерв	-10.4809
▁11	-10.481
▁попу	-10.481
▁числ	-10.4812
▁изобрет	-10.4813
▁привел	-10.4814
▁старость	-10.4835
▁воспита	-10.4846
▁украли	-10.4856
▁основном	-10.4857
▁двига	-10.4859
▁сети	-10.486
потом	-10.486
▁теще	-10.4863
▁перемен	-10.4875
глянул	-10.4892
▁размера	-10.4899
вернуть	-10.4899
▁поклон	-10.4901
▁воскресенье	-10.4901
▁прогноз	-10.4901
▁яйцо	-10.4901
▁британски	-10.4901
▁маньяк	-10.4901
▁ждешь	-10.4901
▁второе	-10.4902
▁проезд	-10.4902
▁остальных	-10.4903
▁купюр	-10.4903
▁ангел	-10.4904
▁расстрел	-10.4905
▁метод	-10.4911
▁песни	-10.4917
▁любого	-10.4923
▁уроки	-10.4933
▁тысячу	-10.4935
▁компьютера	-10.4936
▁невеста	-10.4943
▁араб	-10.4955
▁чая	-10.4958
▁перепис	-10.496
▁привлека	-10.4968
крат	-10.4971
▁ниже	-10.4973
▁связ	-10.4993
▁злой	-10.4998
▁бассейн	-10.5004
▁оказалась	-10.5004
▁ширин	-10.5004
▁пользоваться	-10.5005
▁барабан	-10.5005
▁итоге	-10.5006
▁позна	-10.5008
▁уйти	-10.5009
▁спорт	-10.5012
▁чувств	-10.5015
▁сходил	-10.5016
▁кусок	-10.5016
ква	-10.5017
▁выглядеть	-10.5019
▁бухать	-10.502
▁исполни	-10.5027
▁кран	-10.5029
▁красная	-10.5035
▁поехал	-10.504
▁обще	-10.5044
▁полной	-10.5045
▁кабинете	-10.5046
▁лекарство	-10.5051
▁газету	-10.5052
вшую	-10.5063
▁анекдоты	-10.5071
▁сыном	-10.5073
▁роза	-10.5085
▁попада	-10.5085
▁обидно	-10.5088
▁такими	-10.509
▁научил	-10.5107
▁коррупцией	-10.5108
▁проститутка	-10.5108
▁революци	-10.5108
▁удовлетвор	-10.5108
▁гибдд	-10.5108
▁колобок	-10.5108
▁допинг	-10.5108
▁ласково	-10.5108
▁слушаю	-10.5109
▁сарочка	-10.5109
▁бабки	-10.5109
▁пушкин	-10.5109
▁операцию	-10.5109
▁тип	-10.5111
▁концов	-10.5112
льщик	-10.5119
▁остался	-10.5121
▁носит	-10.5121
▁большую	-10.5125
▁свист	-10.513
вшему	-10.5132
тягивает	-10.5138
здоров	-10.5142
▁красн	-10.5146
▁шла	-10.5152
▁преступник	-10.5158
▁юр	-10.5163
▁летать	-10.5193
▁обмен	-10.5195
▁нашим	-10.5197
▁особ	-10.5203
ступает	-10.5203
▁алкоголизм	-10.5214
▁медсестра	-10.5214
▁осторожно	-10.5214
▁комплимент	-10.5214
▁международн	-10.5214
▁опаздыва	-10.5214
▁новостей	-10.5214
▁кухни	-10.5214
▁чужой	-10.5214
▁королев	-10.5214
▁позволяет	-10.5214
▁утюг	-10.5214
▁попыта	-10.5214
▁подарки	-10.5214
▁федор	-10.5215
ору	-10.5216
▁разреша	-10.5222
▁отсюда	-10.5225
▁священник	-10.5227
▁включа	-10.523
▁шт	-10.5236
▁крест	-10.5239
▁наступает	-10.524
▁спину	-10.5241
▁годами	-10.5241
▁дворник	-10.5244
▁села	-10.5244
▁представьте	-10.5252
смотрел	-10.526
▁старые	-10.5267
▁груз	-10.5268
▁чуд	-10.527
лять	-10.5277
лян	-10.5279
▁представь	-10.5284
▁чей	-10.5291
▁верить	-10.5295
▁встретить	-10.5296
▁четырех	-10.5312
▁налоги	-10.5312
▁америка	-10.5317
▁сочи	-10.5319
▁рекламн	-10.532
▁аппетит	-10.532
▁трамвае	-10.532
▁арбуз	-10.532
▁прокурор	-10.532
▁выпустил	-10.532
▁сказки	-10.532
▁статус	-10.532
▁гостей	-10.532
▁образования	-10.5321
▁заяц	-10.5321
▁заняться	-10.5321
▁налево	-10.5322
▁отличаются	-10.5322
▁плохие	-10.5324
▁произнес	-10.5324
▁занимаешься	-10.5324
▁поменять	-10.5324
▁забыть	-10.5325
▁грустный	-10.5327
▁испыта	-10.5327
▁играл	-10.5328
▁остались	-10.533
▁сборная	-10.5332
▁чувствует	-10.5333
▁отдохнуть	-10.5336
▁счастливо	-10.534
▁произошло	-10.5343
▁дураков	-10.5348
берем	-10.5348
▁курсе	-10.5352
▁обнаружил	-10.5354
▁запрещен	-10.5358
цем	-10.536
▁повтор	-10.5361
▁мон	-10.5363
▁возник	-10.5365
врач	-10.5367
▁красот	-10.5369
▁носят	-10.5369
▁подари	-10.5376
нимает	-10.5378
▁уступ	-10.539
▁вылез	-10.5398
ставлял	-10.54
▁буквы	-10.5401
▁сыт	-10.5409
▁пид	-10.5412
пили	-10.5416
▁смс	-10.5425
летний	-10.5426
▁узнали	-10.5427
▁возмущен	-10.5428
▁губернатор	-10.5428
▁дмитрий	-10.5428
▁конституции	-10.5428
▁нафиг	-10.5428
▁выйдет	-10.5429
▁современн	-10.543
▁женского	-10.5431
▁пират	-10.5434
▁контроль	-10.5438
▁умнее	-10.544
▁рак	-10.5445
▁удивлен	-10.5446
▁святой	-10.545
▁хам	-10.545
▁польз	-10.5452
▁пылесос	-10.5453
▁юмора	-10.5453
▁девять	-10.5455
▁обидел	-10.546
▁скрыва	-10.5463
▁спят	-10.5472
▁адам	-10.5476
▁окон	-10.5483
▁доброе	-10.5489
▁говоря	-10.549
ухи	-10.5504
▁горд	-10.5507
▁губы	-10.5508
ременно	-10.5512
▁рассказыва	-10.5515
ование	-10.5515
▁закончил	-10.5516
▁пенсионно	-10.5519
▁забав	-10.552
▁старш	-10.5535
▁лягу	-10.5535
▁одежду	-10.5536
▁ржевский	-10.5536
▁секретарша	-10.5536
▁стриптиз	-10.5536
▁съезд	-10.5536
▁командировки	-10.5536
▁ветеринар	-10.5536
▁сравни	-10.5536
▁третьего	-10.5537
▁изменить	-10.5538
▁спутник	-10.5538
▁идеально	-10.5538
▁стену	-10.554
▁китайцы	-10.5541
▁счастливым	-10.5542
▁вернулась	-10.5544
▁выстрел	-10.5549
▁вспомни	-10.5549
▁моря	-10.5551
▁задержан	-10.5563
йдем	-10.5569
▁авиа	-10.5569
▁назван	-10.5569
▁буль	-10.557
▁чиновника	-10.5571
▁любая	-10.5576
▁студенты	-10.5589
опы	-10.559
▁борис	-10.5593
личная	-10.5604
▁смешно	-10.5608
▁удовольствием	-10.5609
▁спорта	-10.5611
▁рассматрива	-10.5615
▁масс	-10.5621
▁гра	-10.5624
▁отличие	-10.5626
▁получать	-10.5627
▁голосом	-10.563
▁контрол	-10.5639
▁съед	-10.5644
▁автомобили	-10.5646
▁германии	-10.5646
▁использовать	-10.5646
▁квадрат	-10.5646
▁охранник	-10.5646
▁преподаватель	-10.5646
▁принцесс	-10.5646
▁скажешь	-10.5646
▁ездил	-10.5646
▁проклят	-10.5646
▁сигнал	-10.5646
▁улицы	-10.5648
▁магнит	-10.5648
морожен	-10.5649
▁программа	-10.565
▁самую	-10.565
▁маск	-10.5651
▁пытаются	-10.5654
▁двойн	-10.5657
тянуть	-10.5659
▁странный	-10.5662
▁закончился	-10.567
▁строго	-10.5671
▁мая	-10.5676
▁золотой	-10.5685
▁наркотик	-10.5686
ированный	-10.5686
▁гуд	-10.5689
▁смогли	-10.5691
▁твоим	-10.5693
▁даче	-10.5695
▁продавать	-10.5699
▁жизнью	-10.5702
▁презервативов	-10.5707
▁счастливы	-10.571
▁приходить	-10.5711
▁потерять	-10.5715
фил	-10.5728
▁результаты	-10.5728
▁кров	-10.573
шил	-10.5732
▁развит	-10.5736
▁экзамене	-10.5738
▁медвед	-10.5738
▁товарищи	-10.5746
▁пальца	-10.5749
▁супружеск	-10.5752
▁повар	-10.5753
▁будит	-10.5756
▁историю	-10.5757
▁потребовал	-10.5757
▁ребенком	-10.5757
▁хватило	-10.5757
▁электрик	-10.5757
▁слушает	-10.5757
▁убедить	-10.5757
▁вдвое	-10.5758
▁углу	-10.5758
▁зиму	-10.5758
▁цеп	-10.5764
▁встать	-10.5764
▁чайник	-10.5765
▁бабуля	-10.5765
▁области	-10.5768
▁дешев	-10.577
▁печат	-10.5771
▁сообщил	-10.5781
▁загс	-10.5781
▁встрече	-10.5786
▁мере	-10.5788
▁научился	-10.5791
▁убеж	-10.5791
▁остр	-10.5807
▁пет	-10.581
▁зарабатыва	-10.581
▁немецки	-10.5812
▁знакомый	-10.5813
▁завел	-10.5813
▁считал	-10.5813
▁документ	-10.5832
▁мечтает	-10.5833
▁естественно	-10.5836
▁хреново	-10.584
▁встав	-10.5842
▁борт	-10.5848
▁начинать	-10.585
▁оставля	-10.585
пус	-10.5856
▁патриот	-10.5863
▁пришло	-10.5866
▁вегетариан	-10.587
▁попробовал	-10.587
▁придурок	-10.587
▁представител	-10.587
▁милиции	-10.587
▁серега	-10.587
▁представить	-10.5871
▁жопы	-10.5872
▁постоянн	-10.5873
▁объ	-10.5879
▁запретить	-10.588
▁мудрость	-10.588
▁позвонить	-10.5882
▁чо	-10.5883
кинуть	-10.5893
▁каждом	-10.5894
▁любую	-10.5899
▁сбежал	-10.5901
▁отдать	-10.5906
▁туалетной	-10.5911
▁отдыхать	-10.5912
▁еж	-10.5913
▁спиной	-10.5914
▁закрыв	-10.5924
▁катя	-10.5926
▁преврат	-10.5926
▁умру	-10.593
▁труда	-10.5937
падают	-10.5939
▁конфеты	-10.594
▁французск	-10.5957
▁юмор	-10.5959
▁щек	-10.5964
ставят	-10.5968
▁продукт	-10.597
▁европе	-10.5978
▁профессионал	-10.5981
▁безопасн	-10.5982
▁доказательств	-10.5983
▁ситуация	-10.5983
▁гостях	-10.5983
▁отношений	-10.5983
▁чувствуешь	-10.5983
▁представляю	-10.5983
▁полтора	-10.5984
▁разрешил	-10.5984
остью	-10.5985
▁шнур	-10.5986
▁домашне	-10.5987
▁искренн	-10.5987
▁русским	-10.5991
▁глупости	-10.5994
▁коту	-10.5996
▁хорошую	-10.5999
аших	-10.6
▁удачно	-10.6
▁горло	-10.6002
▁стою	-10.6005
▁руль	-10.6007
▁усы	-10.6014
ющее	-10.6019
▁умел	-10.6025
▁пра	-10.6026
порт	-10.6026
▁бесед	-10.6029
▁блок	-10.603
▁верят	-10.6034
▁медведева	-10.6034
▁субботу	-10.6046
дорож	-10.6047
чество	-10.6059
▁включил	-10.6063
сам	-10.6068
очке	-10.6082
▁расскажи	-10.6087
▁плакат	-10.6089
▁демократ	-10.6089
▁получит	-10.609
ставить	-10.6094
▁вежливо	-10.6098
▁болезни	-10.6098
▁маленькой	-10.6098
▁одессе	-10.6098
▁посадить	-10.6098
▁согласен	-10.6098
▁успокаива	-10.6098
▁мороженое	-10.6098
▁отвечать	-10.6098
▁фразы	-10.6098
▁зрения	-10.6098
▁апреля	-10.6098
▁шлюх	-10.6099
▁клоун	-10.6099
▁укусил	-10.6099
▁чувак	-10.6099
▁пожела	-10.61
▁скотина	-10.61
▁абрамович	-10.61
▁берлин	-10.6101
править	-10.6101
▁заработать	-10.6103
▁остаться	-10.6111
▁втором	-10.6111
▁родину	-10.6113
▁арест	-10.6114
▁пилот	-10.6117
▁страшный	-10.6119
▁неделе	-10.6121
▁мощн	-10.6123
езжает	-10.6126
ворачивается	-10.6127
▁молот	-10.613
▁фар	-10.6132
▁представляете	-10.6139
тащить	-10.614
ставлю	-10.6144
▁центре	-10.6145
▁делом	-10.6156
▁вашим	-10.6158
слав	-10.6159
▁почин	-10.616
▁дураки	-10.6165
▁акул	-10.6166
▁создан	-10.6167
шего	-10.6171
▁воде	-10.6177
▁миг	-10.6177
▁бак	-10.6178
нский	-10.6188
▁богатым	-10.6196
несли	-10.6209
вольно	-10.6212
▁мышь	-10.6213
▁рекоменду	-10.6214
▁инженер	-10.6214
▁режиссер	-10.6214
▁влюблен	-10.6214
▁привычке	-10.6214
▁построить	-10.6215
▁ребенку	-10.6215
▁произносит	-10.6216
▁избавиться	-10.6217
▁женские	-10.6217
▁продам	-10.6218
▁валют	-10.6219
▁продают	-10.622
▁опрос	-10.6223
▁рыбак	-10.6225
▁автор	-10.6226
▁воровать	-10.6227
▁лена	-10.6228
▁уметь	-10.6236
▁храм	-10.6237
▁взятки	-10.6249
▁крепко	-10.6252
▁языком	-10.6254
▁сухо	-10.6254
второй	-10.6261
▁получают	-10.6271
▁занял	-10.6272
▁левой	-10.6286
красить	-10.6293
▁анализ	-10.6295
▁блть	-10.6298
▁карантина	-10.6301
скому	-10.6305
▁выступ	-10.6308
▁большинств	-10.6308
▁цену	-10.6309
▁очередн	-10.631
глядывает	-10.6312
ического	-10.6312
▁пах	-10.6318
программ	-10.6321
▁гороскоп	-10.6332
▁госдумы	-10.6332
▁диагноз	-10.6332
▁доказать	-10.6332
▁задумчиво	-10.6332
▁звучит	-10.6332
▁покупатель	-10.6332
▁швейцар	-10.6332
▁любовница	-10.6332
▁трамвай	-10.6332
▁показывать	-10.6332
▁останется	-10.6332
▁колхоз	-10.6332
▁хомяч	-10.6332
▁внучек	-10.6332
▁пройдет	-10.6332
▁похмелья	-10.6333
▁насчет	-10.6333
▁ничем	-10.6334
▁экономики	-10.6334
▁реали	-10.6334
▁посетитель	-10.6335
▁пальцы	-10.6336
▁несет	-10.6338
▁уснул	-10.6341
▁забыли	-10.6343
▁базар	-10.6344
▁родилась	-10.6351
▁прикол	-10.6362
▁гром	-10.6363
▁уникальн	-10.6364
льф	-10.637
▁документы	-10.6372
▁поставили	-10.6392
▁страшного	-10.6396
▁пьяная	-10.6397
▁поменял	-10.6404
▁установили	-10.6412
лететь	-10.6419
▁марс	-10.6429
▁колбасу	-10.6429
▁политики	-10.6432
▁плачу	-10.6438
▁шкафу	-10.6438
жали	-10.6451
▁андрей	-10.6451
▁интервью	-10.6451
▁корабль	-10.6451
▁литератур	-10.6451
▁немножко	-10.6451
▁продолжает	-10.6451
▁вакцин	-10.6451
▁щас	-10.6451
▁бороться	-10.6451
▁увлек	-10.6452
▁позже	-10.6452
▁джинсы	-10.6452
▁стены	-10.6455
▁ведро	-10.6456
▁орал	-10.6457
▁свеже	-10.6461
▁позволить	-10.6463
▁вспомнить	-10.6466
▁демо	-10.6466
▁плавать	-10.6468
▁газет	-10.6469
▁объясните	-10.6471
▁возможности	-10.6472
▁нечем	-10.6474
смотря	-10.6475
стями	-10.6476
▁дверью	-10.6478
▁маска	-10.6503
▁котик	-10.6509
ноги	-10.6511
▁семью	-10.6512
▁выйду	-10.6526
▁бегать	-10.6527
▁весы	-10.6531
▁купе	-10.6542
▁газете	-10.6557
▁уборк	-10.6558
▁приезж	-10.6559
▁двадцат	-10.6561
▁бриллиант	-10.6572
▁гитлер	-10.6572
▁девственниц	-10.6572
▁евреев	-10.6572
▁резюме	-10.6572
▁рекламу	-10.6572
▁солнышко	-10.6572
▁хозяйка	-10.6572
▁логика	-10.6572
сквозь	-10.6572
▁приятеля	-10.6572
▁контакт	-10.6572
▁погоды	-10.6572
▁наряд	-10.6572
▁выяснилось	-10.6572
▁полицию	-10.6572
▁стучит	-10.6572
▁океан	-10.6573
▁скорость	-10.6573
▁моисеев	-10.6574
▁восста	-10.6575
▁поворот	-10.6576
▁борман	-10.6576
▁вставать	-10.6579
▁кассе	-10.658
▁снимать	-10.6582
▁красавица	-10.6583
вторых	-10.6585
▁трусах	-10.6585
▁отличить	-10.6588
▁повесил	-10.6589
▁черные	-10.6593
▁строить	-10.6601
▁нежно	-10.6603
▁парк	-10.6604
голов	-10.6606
тельных	-10.6608
▁выходи	-10.6609
▁еда	-10.661
▁одиноки	-10.6614
▁перепутал	-10.662
▁платят	-10.6621
рывается	-10.6626
щими	-10.6628
▁дым	-10.6628
▁маску	-10.6637
▁глупость	-10.6637
▁слушал	-10.6639
▁начало	-10.664
▁звонить	-10.6641
▁русском	-10.6642
кладывает	-10.6647
▁обезьяны	-10.6653
▁обнаружили	-10.6654
▁дорог	-10.6658
живать	-10.6667
▁встречу	-10.6676
▁подъезд	-10.6678
▁билл	-10.6681
▁принца	-10.6686
▁эффект	-10.6693
чками	-10.6693
▁америку	-10.6694
▁полицейский	-10.6694
▁свободны	-10.6694
▁уборщиц	-10.6694
▁университет	-10.6694
▁фабрик	-10.6694
▁чужие	-10.6694
▁предпочитаю	-10.6694
▁окончани	-10.6694
▁молока	-10.6694
▁видом	-10.6695
▁вашему	-10.6695
▁синяк	-10.6696
▁кэт	-10.6696
▁играли	-10.6696
▁выгодн	-10.6696
▁удается	-10.6696
▁марья	-10.6698
▁пчел	-10.6698
▁пятница	-10.6698
йдя	-10.6702
▁позвони	-10.6702
▁пачку	-10.6703
▁удобно	-10.6705
▁средства	-10.6706
▁курица	-10.6707
▁рассказывать	-10.6709
▁огромный	-10.6712
▁столик	-10.6713
▁беру	-10.6719
пьем	-10.6722
▁миллионер	-10.6737
▁брюки	-10.6738
▁противник	-10.6741
▁капитал	-10.6742
▁ответить	-10.6748
▁планы	-10.6753
▁ключи	-10.6754
▁уходи	-10.6758
▁пассажиры	-10.6765
▁дамы	-10.6765
▁просят	-10.6765
▁шее	-10.6769
▁кругом	-10.6773
▁ресторана	-10.6777
▁измене	-10.679
▁билеты	-10.6792
▁чиновник	-10.6799
▁местах	-10.6806
▁деревья	-10.6817
▁инопланетян	-10.6817
▁незаметно	-10.6817
▁одежды	-10.6817
▁тюрьме	-10.6817
▁сказку	-10.6817
▁банкомат	-10.6817
▁иисус	-10.6817
▁патрон	-10.6818
▁девочек	-10.6818
▁суровы	-10.6818
▁пидрас	-10.6819
▁текст	-10.6819
▁обоср	-10.682
▁гениальн	-10.6822
▁красивых	-10.6822
▁демократия	-10.6823
▁спрашивал	-10.6832
▁путем	-10.6835
▁торопи	-10.6842
▁комнаты	-10.6852
▁изобрели	-10.6855
▁тверд	-10.6857
этаж	-10.687
чиво	-10.6873
▁явно	-10.6875
▁граждане	-10.6879
▁снимаю	-10.688
▁плен	-10.6884
▁пациенту	-10.689
качал	-10.6892
▁попали	-10.6895
вшиеся	-10.6898
▁целовать	-10.6911
▁звезды	-10.6917
▁изнасилован	-10.6942
▁наверняка	-10.6942
▁навсегда	-10.6942
▁яндекс	-10.6942
▁кавказ	-10.6942
▁умоляю	-10.6942
▁навального	-10.6942
▁дежур	-10.6942
▁заменить	-10.6942
▁покупал	-10.6943
▁нахрен	-10.6944
▁проект	-10.6945
▁собрались	-10.6947
▁месячн	-10.6949
▁занимаются	-10.6951
▁временем	-10.6952
▁занимается	-10.6959
▁молодые	-10.6959
▁спец	-10.6962
▁оставить	-10.6966
▁неудач	-10.6968
▁гордо	-10.6968
▁братан	-10.6971
▁запор	-10.6972
▁помыл	-10.6975
пан	-10.6976
▁этаже	-10.6981
▁собрался	-10.6983
зон	-10.6985
▁олег	-10.6989
крупн	-10.6995
▁скот	-10.6997
▁спящ	-10.6997
▁предложили	-10.7002
▁грыз	-10.7002
▁таракан	-10.7002
▁парад	-10.7005
▁умом	-10.7007
▁танцу	-10.7016
▁бас	-10.7022
▁подарили	-10.7024
▁рассказывал	-10.7026
▁победы	-10.7031
▁выбрать	-10.7037
▁ваз	-10.7045
▁слив	-10.7049
ведет	-10.7062
▁познакомился	-10.7069
▁посоветовал	-10.7069
▁украинско	-10.7069
▁шепчет	-10.7069
▁проверить	-10.7069
▁исполня	-10.7069
▁олимпийск	-10.7069
▁термин	-10.707
▁холостяк	-10.707
▁портрет	-10.7071
▁средний	-10.7074
▁плакал	-10.7076
▁пенсионный	-10.7076
▁бизнесмен	-10.7077
▁лечит	-10.7083
▁сотрудники	-10.7086
▁должность	-10.709
▁требуются	-10.7091
▁тонн	-10.7092
▁процентов	-10.7095
▁баз	-10.7098
▁целых	-10.7101
▁наверно	-10.7101
▁точки	-10.7101
▁смогла	-10.7106
▁футбольн	-10.7107
▁газеты	-10.7109
▁купите	-10.7109
▁монет	-10.711
▁красота	-10.711
▁пишу	-10.7111
▁умение	-10.7119
▁вернуться	-10.712
▁колени	-10.7122
рист	-10.7126
▁ищут	-10.7127
▁врачей	-10.7127
▁закрыть	-10.7127
▁понят	-10.7135
▁совершен	-10.7137
кажите	-10.7142
▁испо	-10.7143
▁пук	-10.7145
браться	-10.7146
▁создать	-10.7151
ражения	-10.7152
▁этаж	-10.7161
▁произошл	-10.717
▁продуктов	-10.717
▁вступ	-10.7173
▁трудом	-10.7185
▁задач	-10.7186
▁чемпион	-10.7189
▁превраща	-10.7191
▁заметили	-10.7191
▁замечает	-10.7197
▁маленького	-10.7197
▁миллиардов	-10.7197
▁соверша	-10.7197
▁функци	-10.7197
▁знаменит	-10.7197
▁система	-10.7197
▁хомяк	-10.7197
практик	-10.7197
▁сказка	-10.7198
▁провожа	-10.72
▁подсудимый	-10.7201
▁парнем	-10.7203
▁научиться	-10.7204
▁ухажива	-10.7206
▁желает	-10.7206
▁звонят	-10.7208
▁испортил	-10.7211
▁четвертый	-10.7211
▁жид	-10.7217
решен	-10.7218
▁ответственность	-10.722
▁ворота	-10.7223
▁ручку	-10.7224
сын	-10.7226
▁юг	-10.7233
▁бегает	-10.7233
▁покажу	-10.7234
слушал	-10.724
▁высше	-10.7242
▁рожа	-10.7243
▁опозда	-10.7244
▁кан	-10.7253
▁карта	-10.7253
▁украл	-10.7254
▁гугл	-10.7259
плыл	-10.7261
▁елку	-10.7261
▁ведут	-10.7267
падает	-10.727
▁умерла	-10.7276
▁новом	-10.7285
▁прекрасны	-10.7294
▁сир	-10.7307
▁пух	-10.7312
▁поговори	-10.7314
коле	-10.7314
▁музыка	-10.7314
▁недостаток	-10.7327
▁регулярно	-10.7327
▁переживай	-10.7327
▁седьм	-10.7327
▁байден	-10.7327
▁неудобно	-10.7327
▁армия	-10.7327
▁туфли	-10.7327
зависимости	-10.7327
▁фонар	-10.7327
▁сбил	-10.7328
▁уснуть	-10.7328
▁лавочк	-10.7328
▁яблоко	-10.7329
▁новогодне	-10.7329
▁уронил	-10.7329
▁болел	-10.7334
▁рабочий	-10.7335
▁хороших	-10.7335
▁ходишь	-10.7337
▁кошек	-10.7342
▁заказал	-10.7344
▁ногти	-10.7345
▁женщинами	-10.7345
ических	-10.7349
▁мур	-10.735
▁идем	-10.7352
▁лекарства	-10.7363
бьет	-10.7372
▁самому	-10.7395
▁прожив	-10.7395
ставлять	-10.74
▁комнат	-10.7403
▁определи	-10.7406
▁коня	-10.7408
▁фильмы	-10.7413
▁духов	-10.7415
▁провал	-10.7418
▁американские	-10.742
▁выбирает	-10.742
▁строя	-10.7422
▁джо	-10.7423
▁автомобиле	-10.7426
▁государства	-10.7426
▁рыбы	-10.7427
▁нервы	-10.7434
▁книг	-10.7442
▁ленив	-10.7447
▁коммент	-10.7457
▁освободи	-10.7458
▁свадебн	-10.7458
▁бесполезн	-10.7458
▁бумага	-10.7458
▁оппозици	-10.7458
▁перфоратор	-10.7458
▁установлен	-10.7458
▁попугай	-10.7458
▁сплош	-10.7458
▁слыхал	-10.7458
▁сомнева	-10.7459
▁восьми	-10.746
▁прийти	-10.746
▁значительно	-10.746
▁франции	-10.746
▁служа	-10.7461
▁крыше	-10.7461
▁признать	-10.7462
▁превращается	-10.7464
▁отдельно	-10.7467
▁хар	-10.7468
▁дворец	-10.7468
▁выгнал	-10.747
▁продается	-10.7473
▁окружающ	-10.7474
▁диете	-10.7475
▁закрой	-10.7479
▁автоматически	-10.7484
▁белого	-10.749
▁птицы	-10.7491
▁брить	-10.7493
▁здоровый	-10.7498
▁вредно	-10.7502
▁помыть	-10.7509
▁кажды	-10.7511
нник	-10.7512
▁водил	-10.7513
правлять	-10.7515
▁мужья	-10.7524
▁задом	-10.7527
▁увелич	-10.753
▁отношениях	-10.7531
▁запретили	-10.7536
бел	-10.7539
▁попадают	-10.7542
▁пин	-10.7545
шив	-10.7549
▁мобильн	-10.7549
▁избил	-10.7555
▁герои	-10.7563
▁жарко	-10.7564
▁семейны	-10.7565
несут	-10.7572
▁котлет	-10.7585
▁талант	-10.7588
▁прошли	-10.759
▁воскрес	-10.7592
▁инстаграм	-10.7592
▁приготовил	-10.7592
▁проститутки	-10.7592
▁ружье	-10.7592
▁мудры	-10.7592
▁африке	-10.7592
▁вырасту	-10.7592
▁население	-10.7592
▁привычка	-10.7592
▁приятель	-10.7592
▁гляди	-10.7592
▁печаль	-10.7594
▁корзин	-10.7594
▁груб	-10.7595
▁радости	-10.7597
либо	-10.7597
▁майор	-10.76
▁жалоб	-10.7602
▁22	-10.7603
▁антон	-10.7603
▁сесть	-10.7604
▁тратить	-10.761
▁интересуется	-10.7612
▁гулял	-10.7615
▁добрая	-10.7618
▁высот	-10.762
▁учебник	-10.762
▁лед	-10.7626
▁спасти	-10.7632
кола	-10.7632
▁аккуратно	-10.7634
▁майк	-10.7637
▁днях	-10.7641
▁соси	-10.7647
▁грибы	-10.7647
▁белая	-10.7647
▁новому	-10.7648
▁коль	-10.7648
веча	-10.7653
после	-10.7656
▁делается	-10.7661
▁карло	-10.7667
▁сожрал	-10.7669
▁запись	-10.7671
▁правильн	-10.7676
▁коты	-10.7676
▁реже	-10.7679
▁поехали	-10.7687
▁стороне	-10.7688
▁извест	-10.77
▁назнач	-10.7704
▁миллионы	-10.7712
▁качество	-10.7713
▁отделе	-10.7715
▁догадался	-10.7727
▁песочниц	-10.7727
▁пораньше	-10.7727
▁склероз	-10.7727
▁территории	-10.7727
▁церкви	-10.7727
▁пешком	-10.7727
▁поколение	-10.7727
▁троих	-10.7727
▁любовнице	-10.7727
▁зрение	-10.7727
▁повыша	-10.7728
▁трусики	-10.7728
▁движение	-10.7729
▁символ	-10.7729
▁рядовой	-10.7729
▁ввести	-10.773
▁закончилась	-10.773
▁нарко	-10.7731
▁переспал	-10.7731
гоняет	-10.7732
▁наибол	-10.7732
▁выхожу	-10.7733
▁лимон	-10.7733
▁задача	-10.7733
▁сообщения	-10.7733
▁пристав	-10.7735
▁попросить	-10.7736
▁европейск	-10.7736
▁дипломат	-10.7737
▁поддержива	-10.7747
▁курят	-10.775
▁дрова	-10.7751
▁распростран	-10.7755
▁глазом	-10.7761
▁грустн	-10.7762
план	-10.7772
▁противо	-10.7775
▁запретил	-10.7781
думайте	-10.7783
▁заставить	-10.7791
штирлиц	-10.7792
▁бабам	-10.7797
▁уходят	-10.781
перед	-10.7817
▁обсужда	-10.7818
▁детско	-10.7818
▁открыты	-10.7824
▁следующи	-10.7835
▁перестань	-10.7844
▁удален	-10.7848
▁заставил	-10.7854
▁младш	-10.7861
▁века	-10.7861
▁плох	-10.7861
носят	-10.7862
▁календар	-10.7864
▁свидетель	-10.7864
▁здрав	-10.7864
▁определя	-10.7864
▁стюардесс	-10.7864
▁шахматы	-10.7864
▁борьба	-10.7864
▁инвалид	-10.7864
▁лезет	-10.7864
▁недорого	-10.7864
▁совести	-10.7864
▁открывать	-10.7864
▁одинаково	-10.7864
▁сортир	-10.7865
▁покорми	-10.7865
▁смело	-10.7865
▁полезно	-10.7866
▁гуляет	-10.7866
▁блдь	-10.7868
▁бешен	-10.7868
▁понимал	-10.7873
▁блюд	-10.7874
▁фигня	-10.7874
▁осталась	-10.7875
▁цветов	-10.7877
▁циля	-10.7879
▁выключи	-10.7881
▁любое	-10.7882
▁богатых	-10.7884
▁плохого	-10.7888
▁волнует	-10.7892
▁зарабатывать	-10.7892
▁сообщает	-10.7892
▁заявляет	-10.7895
▁животные	-10.7898
▁времен	-10.7899
▁главная	-10.7899
▁подбегает	-10.79
▁отпусти	-10.79
шник	-10.7909
▁щел	-10.7913
▁ходи	-10.7913
вшегося	-10.7916
▁купим	-10.792
▁компьютером	-10.7923
▁отрыва	-10.7924
сыпал	-10.7925
девушка	-10.7931
кончить	-10.7934
▁военно	-10.7935
▁проходил	-10.7935
▁греш	-10.794
▁перестали	-10.7941
гран	-10.7951
▁статистике	-10.7952
▁кадров	-10.797
▁хлебом	-10.797
▁искусство	-10.7972
пускаю	-10.7972
▁процент	-10.7977
▁называет	-10.7981
▁пробовали	-10.7986
▁убрал	-10.799
▁кладет	-10.7998
▁вставай	-10.8001
▁иностранны	-10.8002
▁возбужд	-10.8003
▁заблуди	-10.8003
▁использован	-10.8003
▁пианино	-10.8003
▁эксперимент	-10.8003
▁лозунг	-10.8003
▁борьбе	-10.8003
▁умирает	-10.8003
▁российская	-10.8003
▁широк	-10.8003
▁нигде	-10.8003
▁приговор	-10.8003
▁фронт	-10.8003
▁раздается	-10.8003
▁расшир	-10.8003
▁гейтс	-10.8004
▁кашля	-10.8004
▁песню	-10.8007
▁шею	-10.8008
▁мозгов	-10.8009
▁собираются	-10.8011
▁черепах	-10.8016
▁пзд	-10.8022
▁утонул	-10.8024
▁чьи	-10.8028
везли	-10.8029
ительный	-10.803
▁старой	-10.8031
▁способен	-10.8032
▁ногах	-10.8035
▁боли	-10.8038
▁весной	-10.8045
рисовал	-10.8054
давай	-10.8056
ическое	-10.8058
министр	-10.806
▁остановить	-10.8064
▁переполнен	-10.8064
▁законы	-10.8067
▁проводит	-10.8068
▁открывается	-10.807
▁невесты	-10.8073
▁завер	-10.8078
▁данным	-10.8079
▁заднице	-10.8081
▁раздав	-10.8086
▁удав	-10.8099
вожу	-10.812
▁прошл	-10.8121
▁помол	-10.8121
▁победит	-10.8122
▁требуют	-10.8135
▁проведен	-10.8137
▁собирал	-10.8141
▁выглядишь	-10.8143
▁карандаш	-10.8143
▁колготки	-10.8143
▁кошмар	-10.8143
▁лучшим	-10.8143
▁пингвин	-10.8143
▁узнаешь	-10.8143
▁макарон	-10.8144
▁замерз	-10.8144
▁поймать	-10.8144
▁убедил	-10.8144
▁достойн	-10.8145
▁женское	-10.8145
▁слышишь	-10.8146
▁лечение	-10.8149
▁русской	-10.815
▁собираюсь	-10.815
▁уверены	-10.8151
▁обнаж	-10.8151
▁столовой	-10.8152
скакивает	-10.8152
▁лежу	-10.8156
▁войне	-10.8156
▁китайски	-10.8162
▁немцы	-10.8162
▁важны	-10.8167
▁сладко	-10.8169
▁бросает	-10.8173
▁запрещено	-10.818
▁умных	-10.818
▁американский	-10.8184
кажем	-10.8186
▁задает	-10.8188
▁выдает	-10.8192
▁боб	-10.8193
▁отзыв	-10.8194
▁выпал	-10.8194
верните	-10.8196
▁черной	-10.8203
▁бегал	-10.8209
везти	-10.821
▁праздн	-10.8214
▁сапоги	-10.8214
▁влез	-10.8231
▁одних	-10.8238
кладывать	-10.8242
▁услуги	-10.8249
▁роль	-10.8253
▁избав	-10.8263
альное	-10.8265
▁металл	-10.8266
▁успев	-10.8267
▁садике	-10.8282
▁ловит	-10.8285
▁бессмысленн	-10.8286
▁бутылок	-10.8286
▁градусов	-10.8286
▁объясняет	-10.8286
▁оливье	-10.8286
▁патологоанатом	-10.8286
▁почувствовал	-10.8286
▁свидании	-10.8286
▁следующей	-10.8286
▁глубин	-10.8286
▁большого	-10.8286
▁захочет	-10.8286
▁улыбну	-10.8286
▁белорус	-10.8286
▁смертн	-10.8286
▁объект	-10.8286
▁макияж	-10.8286
▁идеальный	-10.8286
▁последним	-10.8287
▁выпью	-10.8287
▁критик	-10.8287
▁акция	-10.8288
▁изображен	-10.8288
▁понравилась	-10.8289
▁игрушки	-10.8289
▁зайти	-10.8291
▁задание	-10.8291
▁вещей	-10.8292
▁выраж	-10.8292
▁осень	-10.8294
▁прошлый	-10.8296
▁войти	-10.8296
▁бояться	-10.8299
▁казн	-10.8299
▁песня	-10.83
▁отлича	-10.8305
▁намерен	-10.8311
▁водочк	-10.8323
▁интересный	-10.8327
▁пьяного	-10.8332
▁работ	-10.8334
▁страной	-10.8337
открыв	-10.8337
▁бред	-10.8344
▁марин	-10.8347
▁скуп	-10.8348
▁слыш	-10.8348
▁брюнет	-10.8351
▁сотрудников	-10.8351
▁девиц	-10.8352
▁силу	-10.836
▁грудью	-10.836
нимая	-10.837
▁помо	-10.8374
▁врагов	-10.8376
ывали	-10.8385
ожно	-10.8388
▁помидор	-10.8394
водил	-10.8405
▁банку	-10.8405
▁обоз	-10.8407
▁птица	-10.8411
средств	-10.8421
▁кричат	-10.8421
▁движ	-10.8426
▁дева	-10.8426
▁грязь	-10.8431
▁побольше	-10.8431
▁улыбается	-10.8431
▁ограблен	-10.8431
▁проктолог	-10.8431
▁тюрьмы	-10.8431
▁волнуйся	-10.8431
▁участник	-10.8431
▁надежда	-10.8431
▁людоед	-10.8431
▁расскажу	-10.8432
▁коммунист	-10.8432
▁растеря	-10.8432
▁скорей	-10.8432
▁нормальный	-10.8432
▁закусыва	-10.8432
▁инструктор	-10.8432
▁рабочего	-10.8433
▁довольны	-10.8433
▁накорми	-10.8433
▁вовочку	-10.8435
▁районе	-10.8435
▁зайчик	-10.8436
▁проиграл	-10.8437
▁дракон	-10.8437
▁позор	-10.8437
▁уровне	-10.8438
▁устройств	-10.844
▁отдам	-10.844
нулась	-10.8443
▁21	-10.8443
▁захожу	-10.8443
▁огне	-10.8443
енько	-10.8444
▁илья	-10.8447
▁станешь	-10.8449
▁штат	-10.8449
▁справа	-10.845
▁врать	-10.846
▁1000	-10.8465
▁набрал	-10.847
▁пыль	-10.8475
жег	-10.8482
▁чье	-10.8487
▁третья	-10.8488
▁беспокоит	-10.8488
▁наташ	-10.849
вшихся	-10.8492
▁футболисты	-10.8493
▁девчонки	-10.8493
▁мужская	-10.8495
▁течение	-10.8496
▁убрать	-10.8499
▁кум	-10.8501
маш	-10.8504
▁сапог	-10.8505
▁членом	-10.8507
▁плач	-10.8508
▁серд	-10.851
▁ракеты	-10.8513
▁колбасы	-10.8514
доктор	-10.8516
▁утверждает	-10.8519
▁объясни	-10.8531
▁тату	-10.8531
▁криво	-10.8547
▁балл	-10.8552
▁послушай	-10.8568
▁приближа	-10.8578
▁хоккей	-10.8578
▁биатлон	-10.8578
▁вконтакте	-10.8578
▁горизонт	-10.8578
▁задолбал	-10.8578
▁конституцию	-10.8578
▁кроссворд	-10.8578
▁памяти	-10.8578
▁появилось	-10.8578
▁украинцы	-10.8578
▁терпеть	-10.8578
▁систему	-10.8578
▁фирмы	-10.8578
▁последняя	-10.8578
▁лишний	-10.8578
▁убийц	-10.8578
▁европы	-10.8578
▁жителей	-10.8578
▁последней	-10.8578
▁эксперт	-10.8579
▁пиджак	-10.8579
▁программы	-10.8579
▁гитар	-10.8579
▁колесо	-10.8579
▁удивил	-10.8579
▁погоду	-10.858
▁курсант	-10.8581
▁расчет	-10.8582
▁общаться	-10.8582
▁собираешься	-10.8583
▁партия	-10.8585
▁старушка	-10.8585
▁кулак	-10.8586
▁засып	-10.8591
▁будущего	-10.8591
▁гладит	-10.8591
▁пьяным	-10.8591
▁странные	-10.8594
▁добрые	-10.8595
▁совпад	-10.8595
▁встречаться	-10.8598
▁отчет	-10.8599
▁устроить	-10.8599
▁километров	-10.8605
▁победить	-10.8609
▁понятия	-10.8614
▁парт	-10.8615
▁целью	-10.8615
▁атеист	-10.8615
булоч	-10.8618
▁150	-10.8618
▁пустой	-10.8625
▁шоке	-10.8628
▁спрос	-10.8628
▁страдаю	-10.863
▁берешь	-10.8632
▁руководител	-10.8639
чистит	-10.864
▁суши	-10.8641
▁заглядыва	-10.8644
▁приезжай	-10.8646
▁слав	-10.8651
▁участие	-10.8675
▁справедлив	-10.8681
▁развива	-10.8682
желт	-10.8692
вязать	-10.8693
▁американски	-10.8698
▁ограничен	-10.8699
▁обеспеч	-10.8703
▁птиц	-10.8717
▁столб	-10.8722
▁блондинку	-10.8728
▁ботинки	-10.8728
▁возьмем	-10.8728
▁последнего	-10.8728
▁электричество	-10.8728
▁табурет	-10.8728
▁угрожа	-10.8728
▁бандит	-10.8728
▁угроз	-10.8728
▁операция	-10.8728
▁милиция	-10.8728
▁солнечн	-10.8728
▁социальны	-10.8728
▁отобрал	-10.8728
▁родственники	-10.8728
▁православн	-10.8728
▁дерева	-10.873
▁зимне	-10.8731
▁полоса	-10.8734
▁нижне	-10.8737
▁заработ	-10.8738
▁решает	-10.8739
▁моряк	-10.874
▁царе	-10.8744
▁бегают	-10.8744
▁молодого	-10.8747
▁большом	-10.8749
▁красную	-10.8755
▁голубые	-10.8756
▁запомните	-10.8757
▁дружба	-10.8761
▁дальне	-10.8762
▁сдавать	-10.8767
▁меч	-10.8771
▁пуп	-10.878
▁статистик	-10.8782
▁останавлива	-10.8784
бивают	-10.879
▁бане	-10.8792
▁голубой	-10.8797
▁удобн	-10.88
▁молодым	-10.8802
▁посадил	-10.8806
▁замечательно	-10.8807
▁голой	-10.881
грыз	-10.881
чуть	-10.8812
▁курю	-10.8823
▁включен	-10.8824
▁приехали	-10.8826
▁маг	-10.8827
ненько	-10.8832
▁приступ	-10.8844
▁братья	-10.8859
▁полном	-10.887
▁взлет	-10.8871
▁гуляю	-10.8878
ступления	-10.8879
▁оказались	-10.8879
▁окончательно	-10.8879
▁посреди	-10.8879
▁приготовить	-10.8879
▁принадлеж	-10.8879
▁прогресс	-10.8879
▁светофор	-10.8879
▁тщательно	-10.8879
▁догадыва	-10.8879
▁наполеон	-10.8879
▁попробовать	-10.8879
▁правительстве	-10.8879
▁традиция	-10.8879
▁ковыря	-10.8879
▁письма	-10.8879
▁приобрет	-10.8879
▁загадоч	-10.8879
▁судьба	-10.8879
▁пионер	-10.8879
▁пульт	-10.8879
▁решения	-10.8879
▁вооружен	-10.8879
несла	-10.888
▁защиты	-10.888
▁сердцу	-10.888
▁обожаю	-10.8881
▁природа	-10.8881
▁больницы	-10.8883
▁партии	-10.8884
▁ягод	-10.8885
битый	-10.8888
▁боишься	-10.8888
▁баню	-10.889
▁боялся	-10.889
▁квартир	-10.8891
▁кучу	-10.8896
▁тупые	-10.8896
▁радует	-10.8899
▁провели	-10.8919
▁занятия	-10.8919
красил	-10.892
▁смогут	-10.8931
ливая	-10.8931
▁помнит	-10.8936
▁голая	-10.8938
▁маз	-10.8949
▁молоденьк	-10.8952
▁фан	-10.8953
▁рыбка	-10.8958
▁чип	-10.8961
клуб	-10.8964
▁неприятно	-10.897
▁летчик	-10.897
думаешь	-10.8971
▁управлять	-10.8974
▁просмотр	-10.8983
▁классно	-10.8993
▁леди	-10.9001
▁принесли	-10.9002
водится	-10.9012
▁сними	-10.9014
▁попадает	-10.9016
▁желуд	-10.9032
▁операцион	-10.9033
конференци	-10.9033
▁верблюд	-10.9033
▁ездят	-10.9033
▁настоящее	-10.9033
▁оскорблени	-10.9033
▁положено	-10.9033
▁санкций	-10.9033
▁собянин	-10.9033
▁шампанское	-10.9033
▁борьбы	-10.9033
▁смеяться	-10.9033
▁спрятал	-10.9033
▁вслед	-10.9033
▁универ	-10.9033
▁лекции	-10.9033
▁российским	-10.9033
▁закончится	-10.9033
▁счастью	-10.9033
близнец	-10.9033
▁обычный	-10.9033
▁рассчитыва	-10.9033
▁группы	-10.9033
▁оплачива	-10.9033
▁иваныч	-10.9033
▁диету	-10.9035
▁восьмо	-10.9036
выполня	-10.9038
▁отдавать	-10.9038
иваем	-10.9039
▁сердца	-10.904
▁задница	-10.904
▁морск	-10.9042
▁устраивает	-10.9043
▁продавца	-10.9043
▁кричать	-10.9044
▁помер	-10.9047
▁странная	-10.9049
▁ложь	-10.9053
▁павл	-10.9055
▁спорить	-10.9058
▁игрок	-10.9059
▁семейной	-10.9059
▁продавщица	-10.9063
▁предостав	-10.9065
▁выходя	-10.9075
▁парку	-10.908
▁появляются	-10.9084
курил	-10.9091
▁бедным	-10.9091
бегать	-10.9095
▁пассажиров	-10.9102
▁юрист	-10.9111
▁ногой	-10.9112
▁таня	-10.9114
▁пакетик	-10.9118
▁четвер	-10.9124
▁надписью	-10.9129
▁кремле	-10.9133
справедливость	-10.914
эль	-10.9145
▁мойша	-10.9147
спорт	-10.9153
▁красив	-10.9158
▁ответственн	-10.9161
▁принят	-10.9165
▁материал	-10.9172
▁бутылочк	-10.9189
▁киркоров	-10.9189
▁тротуар	-10.9189
▁галстук	-10.9189
▁егэ	-10.9189
▁поцеловал	-10.9189
▁появится	-10.9189
▁согласна	-10.9189
▁телеграм	-10.9189
▁задумался	-10.9189
▁возьмет	-10.9189
▁напряг	-10.9189
▁фрукт	-10.9189
▁бюро	-10.9189
▁развестись	-10.9189
▁гопник	-10.9189
▁служил	-10.9189
▁шпион	-10.9189
▁котенка	-10.9189
▁киллер	-10.919
▁соревнования	-10.919
▁отцом	-10.919
▁обещаю	-10.9191
▁радоваться	-10.9191
▁неправда	-10.9191
▁жутко	-10.9192
▁интересует	-10.9193
▁специальн	-10.9193
пустит	-10.9194
▁чебурашка	-10.9194
▁утверждают	-10.9194
▁пользуются	-10.9199
▁меню	-10.9201
▁модель	-10.9204
▁валер	-10.9205
▁объем	-10.9205
▁физ	-10.9208
▁молодых	-10.9209
ницей	-10.921
▁вошел	-10.9212
▁глупые	-10.9213
▁скромно	-10.9214
▁современной	-10.9214
▁темноте	-10.9215
останов	-10.9216
▁грабли	-10.9221
следователь	-10.9224
▁записку	-10.9225
▁знаем	-10.923
▁заплатить	-10.9247
▁любимой	-10.925
▁связь	-10.9251
▁бойся	-10.9252
рошен	-10.9256
▁яйцами	-10.926
▁старого	-10.9267
▁кожа	-10.9269
▁просить	-10.9271
▁мэри	-10.9278
▁выбирать	-10.9292
слал	-10.9295
▁подключ	-10.9296
▁шутка	-10.93
▁уезжа	-10.9304
▁наступит	-10.9311
отец	-10.9317
▁дешево	-10.9323
ллер	-10.9333
▁точку	-10.9345
▁жди	-10.9346
▁настоящего	-10.9348
▁познакомились	-10.9348
▁сбербанк	-10.9348
▁поцелуй	-10.9348
▁пятнадцать	-10.9348
▁фитнес	-10.9348
▁нормальные	-10.9348
▁тарелку	-10.9348
▁неважно	-10.9348
▁соблюда	-10.9348
▁раздражает	-10.9348
▁тварь	-10.9348
▁считаешь	-10.9348
▁царь	-10.9348
▁газпром	-10.9348
▁смеется	-10.9348
▁селфи	-10.9348
▁середин	-10.9348
▁слегка	-10.9348
▁природы	-10.9348
▁эстонск	-10.9348
▁едем	-10.9349
▁акции	-10.9349
▁продавцу	-10.9349
▁огорч	-10.9349
▁виктор	-10.9352
▁возникает	-10.9354
▁желудок	-10.9354
▁умрет	-10.9356
▁программе	-10.9356
▁объяснил	-10.9359
▁послушайте	-10.936
▁слышно	-10.9361
▁расскажите	-10.9364
▁алла	-10.9373
▁сантиметров	-10.9375
▁богатый	-10.9382
▁виноваты	-10.9384
▁март	-10.9388
▁известны	-10.94
▁попало	-10.9401
▁красной	-10.9405
▁стоп	-10.9413
▁степан	-10.9418
▁жизн	-10.9418
▁срать	-10.9419
▁русскому	-10.942
нимай	-10.9431
▁бежал	-10.9465
▁одиноко	-10.9469
▁разговарива	-10.948
▁отвечаю	-10.9484
ведите	-10.9498
▁очередно	-10.95
▁гестапо	-10.9509
▁достоинство	-10.9509
▁изнасиловал	-10.9509
▁йогурт	-10.9509
▁маленьких	-10.9509
▁некоторым	-10.9509
▁одесса	-10.9509
▁профессия	-10.9509
▁рейтинг	-10.9509
▁кошельк	-10.9509
▁отношение	-10.9509
▁свободе	-10.9509
▁чужих	-10.9509
▁денеж	-10.9509
▁сережа	-10.9509
▁заранее	-10.951
▁заснуть	-10.951
▁буквально	-10.951
▁лбу	-10.9511
▁подорожал	-10.9511
▁боря	-10.9511
▁именем	-10.9512
▁202	-10.9512
▁отчая	-10.9513
▁фотографию	-10.9515
ражает	-10.9515
▁своя	-10.9516
▁основно	-10.9517
▁голыми	-10.9517
▁вызывал	-10.9518
▁внутренний	-10.9518
жник	-10.9519
▁труднее	-10.9519
▁отказался	-10.952
▁некуда	-10.9522
▁плакать	-10.9524
▁админ	-10.9524
▁пенсионн	-10.9525
▁добавить	-10.9526
▁осенью	-10.9531
▁симпатичная	-10.9532
▁сгорел	-10.9548
▁покупают	-10.9548
▁лицу	-10.955
▁помидоры	-10.9551
▁кубик	-10.956
▁останавливается	-10.9563
▁записал	-10.9566
▁доказали	-10.9569
▁запуск	-10.9575
▁пир	-10.9576
▁снимал	-10.958
▁старых	-10.9585
▁посадили	-10.9588
▁винни	-10.9599
▁отойди	-10.96
способ	-10.9602
▁пачка	-10.9622
▁предсказ	-10.9648
▁понрави	-10.9662
▁твиттер	-10.9673
▁вибратор	-10.9673
▁депрессия	-10.9673
▁недостаточно	-10.9673
▁официально	-10.9673
▁ошибок	-10.9673
▁поликлинике	-10.9673
▁уважаемый	-10.9673
▁карлсон	-10.9673
▁человечество	-10.9673
▁подготовк	-10.9673
▁фразой	-10.9673
▁михаил	-10.9673
▁онлайн	-10.9673
▁вертолет	-10.9673
▁сметан	-10.9673
▁спрашивать	-10.9673
▁украинские	-10.9674
▁принтер	-10.9674
▁поспать	-10.9674
▁фирме	-10.9674
▁тремя	-10.9674
▁достижени	-10.9674
▁стрельб	-10.9674
▁ребят	-10.9675
▁беременны	-10.9675
▁оборот	-10.9675
▁зовет	-10.9676
▁мебель	-10.9676
▁станции	-10.9677
▁напился	-10.9678
▁добавил	-10.9678
▁экономика	-10.9678
▁ведра	-10.9679
▁плачешь	-10.9679
▁бабушку	-10.9679
▁весьма	-10.9682
▁решительн	-10.9682
▁гарри	-10.9685
▁тише	-10.9691
▁повторять	-10.9691
днюю	-10.9692
▁работой	-10.9693
▁стрелял	-10.9696
▁служить	-10.97
▁черную	-10.9703
▁зайца	-10.9705
▁сошел	-10.9707
▁любые	-10.9708
▁увеличени	-10.971
▁автомобилей	-10.9714
▁веришь	-10.9715
▁заплати	-10.9717
▁котлеты	-10.972
▁обсуждают	-10.9729
ринг	-10.9731
▁наркоз	-10.9732
▁марш	-10.9734
▁трах	-10.9736
▁мут	-10.9739
▁мораль	-10.9747
▁туристов	-10.9747
▁дурой	-10.9748
▁собирает	-10.9755
▁трезвым	-10.9759
качать	-10.9762
льц	-10.9764
▁половой	-10.9766
▁вероятно	-10.9778
▁варен	-10.9778
▁выбирают	-10.9784
▁необходим	-10.9784
▁твердо	-10.9786
▁руководство	-10.9794
▁продаю	-10.9801
▁собрать	-10.9803
▁поеду	-10.9803
▁футбольны	-10.982
▁мок	-10.9824
▁заработал	-10.9828
▁вклад	-10.9828
▁хитро	-10.9831
▁америки	-10.984
▁аргумент	-10.984
▁блондинок	-10.984
▁заключается	-10.984
▁золотую	-10.984
▁майонез	-10.984
▁неизвестно	-10.984
▁предприяти	-10.984
▁психотерапевт	-10.984
▁пуговиц	-10.984
▁спустя	-10.984
▁фамилию	-10.984
▁водителю	-10.984
▁муравей	-10.984
▁терпение	-10.984
▁сестры	-10.984
▁соглаша	-10.984
▁мешают	-10.984
▁застрял	-10.984
▁свиньи	-10.984
▁змей	-10.984
▁наличие	-10.9841
▁наклон	-10.9841
▁отчего	-10.9841
▁дурацк	-10.9841
▁шевел	-10.9842
▁закончились	-10.9844
▁артист	-10.9845
▁визит	-10.9845
▁нудист	-10.9846
▁голубчик	-10.9847
▁ушли	-10.9848
▁наказание	-10.9848
▁южно	-10.9852
▁ловить	-10.9853
▁научились	-10.9853
▁жрет	-10.9853
▁повесить	-10.9853
▁послать	-10.9854
▁электронн	-10.9857
▁равн	-10.9859
▁переехал	-10.986
▁выходных	-10.9865
▁хол	-10.9866
▁обяз	-10.9871
▁стрелять	-10.9871
▁джин	-10.9872
▁белых	-10.9878
▁стру	-10.9881
▁вынес	-10.9881
▁десятк	-10.9882
▁принимают	-10.9911
▁пенсионеров	-10.9922
▁палку	-10.9933
▁застав	-10.9943
▁винт	-10.9949
▁заплатил	-10.9952
платить	-10.9968
российск	-10.9977
▁дочку	-10.9979
▁кормил	-10.9988
▁итальян	-10.9992
падать	-10.9995
▁ездит	-10.9999
▁бесконечно	-11.0004
ометр	-11.0006
авляю	-11.0006
ложения	-11.0007
▁алкоголем	-11.0009
▁лучших	-11.0009
▁минздрав	-11.0009
▁патриарх	-11.0009
▁просыпаюсь	-11.0009
▁свободы	-11.0009
▁чубайс	-11.0009
▁горыныч	-11.0009
▁ерунда	-11.0009
▁кондуктор	-11.0009
▁лейтенант	-11.0009
▁пожрать	-11.0009
▁предвыборн	-11.0009
▁терапевт	-11.0009
▁украсть	-11.0009
▁дятел	-11.0009
▁оригинал	-11.0009
▁грамот	-11.0009
▁мешок	-11.0009
▁окулист	-11.0009
▁потратил	-11.0009
▁змея	-11.0009
▁очевидн	-11.0009
▁идеальная	-11.0009
▁сумел	-11.001
▁клетки	-11.001
▁майдан	-11.0011
▁пальцев	-11.0012
воспитыва	-11.0012
▁зашла	-11.0013
▁финал	-11.0013
▁обиделась	-11.0013
▁2020	-11.0014
▁этикет	-11.0014
▁демократии	-11.0015
пойма	-11.0016
▁ушами	-11.0016
▁почте	-11.0017
▁возвращаются	-11.0019
▁находил	-11.0021
▁зев	-11.0024
▁люд	-11.0024
▁мировой	-11.0025
▁прекрасная	-11.0025
▁провед	-11.0026
▁спорят	-11.0028
▁бэ	-11.0029
▁мочи	-11.0031
▁богатые	-11.0036
▁выходной	-11.0043
▁заговор	-11.0051
явления	-11.0053
▁карту	-11.0054
▁красные	-11.0054
▁сохрани	-11.0064
▁анализы	-11.0064
▁звоню	-11.0067
▁рта	-11.0069
▁трусов	-11.0071
венно	-11.0074
▁погон	-11.0075
▁максим	-11.0083
▁раком	-11.0087
крыть	-11.0087
▁ею	-11.0088
▁пс	-11.0088
▁приводит	-11.0095
личные	-11.0098
▁культурн	-11.0098
▁службы	-11.0099
ступают	-11.0103
▁коровы	-11.0104
▁краш	-11.0105
▁девчонк	-11.0108
завтра	-11.011
▁козлы	-11.0112
▁капли	-11.0113
▁огр	-11.0116
▁дима	-11.012
▁молочн	-11.0126
▁способны	-11.0127
центр	-11.0132
▁греб	-11.0139
▁призвал	-11.0167
▁блюдо	-11.0177
колол	-11.0177
▁аквариум	-11.0182
▁восклица	-11.0182
▁деревню	-11.0182
▁достоинства	-11.0182
▁постепенно	-11.0182
▁председател	-11.0182
▁сможешь	-11.0182
▁фамилии	-11.0182
прежнему	-11.0182
▁волнуйтесь	-11.0182
▁источник	-11.0182
▁последних	-11.0182
▁сисадмин	-11.0182
▁бегемот	-11.0182
▁эфир	-11.0182
▁санитар	-11.0182
▁титаник	-11.0182
▁свидания	-11.0182
▁украинский	-11.0182
▁камень	-11.0182
▁родственников	-11.0182
▁охота	-11.0182
▁романтичн	-11.0182
▁борода	-11.0183
▁партнер	-11.0183
▁толпа	-11.0183
▁приходилось	-11.0185
▁воруют	-11.0185
▁романтик	-11.0185
▁предпоч	-11.0186
▁матрос	-11.0188
▁слева	-11.0194
▁особы	-11.0195
▁бабуль	-11.0198
▁увидит	-11.0198
▁погоди	-11.0203
▁усили	-11.0203
▁сверх	-11.0203
летняя	-11.0204
▁молодость	-11.0208
брасывать	-11.0209
▁отвечают	-11.0212
валился	-11.0213
▁стоишь	-11.0213
▁увеличить	-11.0214
▁перчатки	-11.0218
▁занятие	-11.0222
▁ручки	-11.0225
▁рту	-11.0227
▁дорогах	-11.0231
▁пьяных	-11.0234
▁герой	-11.0234
▁спортом	-11.0237
▁аптека	-11.0238
▁комары	-11.0247
▁бедный	-11.0248
▁сдает	-11.0252
▁молчал	-11.0262
изации	-11.0267
▁счастливый	-11.0268
▁московски	-11.027
поминать	-11.0272
бизнес	-11.0286
▁слезы	-11.0288
▁разбит	-11.0291
▁помой	-11.0295
ющую	-11.0302
кусить	-11.0302
▁новеньк	-11.0304
▁почем	-11.0315
полнить	-11.0317
мама	-11.0319
▁посеща	-11.0327
станьте	-11.0331
числен	-11.0342
▁обвиняем	-11.0357
▁бумагу	-11.0357
▁лампочку	-11.0357
▁пирожки	-11.0357
▁рекламе	-11.0357
▁самоизоляции	-11.0357
▁сволочи	-11.0357
▁успокойся	-11.0357
▁кирилл	-11.0357
▁мультик	-11.0357
▁хозяйстве	-11.0357
▁застрелил	-11.0357
▁картошки	-11.0357
▁поймешь	-11.0357
▁крылья	-11.0357
▁тариф	-11.0357
▁жалуются	-11.0357
▁трогай	-11.0357
▁дзю	-11.0357
▁близко	-11.0358
▁питание	-11.0358
▁свитер	-11.0358
▁трудовик	-11.0358
▁блох	-11.0358
▁курицу	-11.0359
▁сжига	-11.036
▁музыкант	-11.036
▁веган	-11.0364
▁мисс	-11.0368
▁уволили	-11.0371
▁музыкальн	-11.0372
▁ругаться	-11.0377
▁прыгать	-11.0379
▁страшные	-11.0381
▁красное	-11.0381
▁толстый	-11.0392
▁выглядел	-11.0393
▁категории	-11.0393
▁носков	-11.0394
▁молчание	-11.0399
▁детской	-11.0399
▁зеленый	-11.04
▁суть	-11.0404
▁сломался	-11.0405
▁записка	-11.0406
▁молчать	-11.0406
▁китайский	-11.0407
▁сцена	-11.0417
▁проводить	-11.0417
▁подходят	-11.0418
▁общественны	-11.0421
▁скорости	-11.0422
▁держится	-11.0425
▁клев	-11.0428
▁тещей	-11.043
▁правил	-11.0433
▁имена	-11.0449
▁бокс	-11.0459
▁красивым	-11.0474
▁паш	-11.0475
ирование	-11.0476
▁сохранить	-11.0479
▁причины	-11.0489
▁покупаю	-11.0493
▁прожил	-11.0497
▁отсутств	-11.0501
армян	-11.0532
▁алко	-11.0535
▁обслужива	-11.0536
▁анатольевич	-11.0536
▁беременность	-11.0536
▁бесплатный	-11.0536
▁бутылкой	-11.0536
▁декабря	-11.0536
▁дьявол	-11.0536
▁небольшой	-11.0536
▁подальше	-11.0536
▁ситуацию	-11.0536
▁сюрприз	-11.0536
▁ухрюпинск	-11.0536
▁борьбу	-11.0536
▁импотент	-11.0536
▁ипотеку	-11.0536
▁телеканал	-11.0536
▁рпц	-11.0536
▁стабильно	-11.0536
▁хобби	-11.0536
▁посмотрев	-11.0536
▁вряд	-11.0536
▁дышать	-11.0536
▁отличный	-11.0536
▁переспать	-11.0537
▁нэ	-11.0537
▁природе	-11.0537
▁решать	-11.0539
▁сильные	-11.0539
▁гнев	-11.0539
▁сложнее	-11.054
▁длинные	-11.054
▁движения	-11.054
▁рельс	-11.054
▁ковер	-11.0541
▁извиня	-11.0542
▁импорт	-11.0542
▁кошач	-11.0542
▁пригласить	-11.0542
▁поверь	-11.0544
▁опасны	-11.0545
▁вань	-11.0547
▁обалде	-11.0547
▁придумыва	-11.0549
▁нарушени	-11.0549
▁выдержал	-11.055
▁остаются	-11.0552
▁парней	-11.0552
▁американец	-11.0554
▁зажига	-11.0556
▁белым	-11.0558
▁взрослый	-11.0558
ьтесь	-11.056
▁идеал	-11.0561
▁говорящ	-11.0564
ющийся	-11.0565
▁литров	-11.0568
▁перестать	-11.057
падение	-11.0571
▁злая	-11.0572
▁спальню	-11.0572
▁тараканов	-11.0577
▁чувствовал	-11.0578
следственн	-11.0579
▁лечь	-11.0581
▁кольца	-11.0582
бросить	-11.0584
▁девки	-11.0584
▁комаров	-11.0588
▁омон	-11.0589
▁уходить	-11.0589
▁учится	-11.0592
▁куча	-11.0593
▁пьяные	-11.0594
▁разговариваю	-11.06
▁перестает	-11.0609
словно	-11.0611
▁ребе	-11.0613
▁предлагают	-11.0637
▁сеть	-11.0637
▁убийств	-11.0644
▁нажр	-11.0664
▁дико	-11.0671
▁пиши	-11.0679
вшаяся	-11.0687
▁корон	-11.0693
▁здравствуй	-11.0707
шивает	-11.0708
▁хваста	-11.0712
▁госдума	-11.0718
▁дополнительн	-11.0718
▁ежедневн	-11.0718
▁катастроф	-11.0718
▁кресло	-11.0718
▁миллиардер	-11.0718
▁мусульман	-11.0718
▁нынче	-11.0718
▁оружия	-11.0718
▁перспектив	-11.0718
▁подскажете	-11.0718
▁предупредил	-11.0718
▁приготовлен	-11.0718
▁самостоятельно	-11.0718
▁свободу	-11.0718
▁сравнени	-11.0718
▁успешны	-11.0718
▁россией	-11.0718
▁элементарно	-11.0718
▁водителей	-11.0718
▁вслух	-11.0718
▁казалось	-11.0718
▁найдешь	-11.0718
▁эмоци	-11.0718
▁вскоре	-11.0718
▁стресс	-11.0718
▁сумму	-11.0718
▁чеснок	-11.0718
▁попугая	-11.0718
▁соломон	-11.0718
▁перевести	-11.0718
▁хотим	-11.0718
▁отравлен	-11.0718
▁химии	-11.0718
▁отвлек	-11.0718
▁облегч	-11.0718
▁почту	-11.0719
▁производители	-11.0719
▁кусочек	-11.0719
▁захотелось	-11.0719
▁существуют	-11.072
▁молитв	-11.072
▁прячет	-11.0721
▁редки	-11.0722
▁приходишь	-11.0724
▁грузчик	-11.0725
▁перерыв	-11.0726
▁прилично	-11.0727
▁поесть	-11.0728
▁разруш	-11.073
▁забил	-11.073
▁золотая	-11.0734
▁пятеро	-11.0736
▁умирают	-11.0738
▁больному	-11.0738
▁звали	-11.074
▁неделя	-11.074
▁разобра	-11.0756
▁ядерно	-11.0761
▁пахнут	-11.0762
▁прекрасный	-11.0763
▁искусственны	-11.0767
▁смертью	-11.0767
▁прибегает	-11.0768
▁жарен	-11.077
▁рыбку	-11.0775
▁машиной	-11.0776
▁отправить	-11.0777
▁проходят	-11.078
▁терпи	-11.0781
▁объявляет	-11.0785
▁утвержда	-11.0785
▁бухаю	-11.0788
▁задержал	-11.0793
▁подумай	-11.0833
ическую	-11.0852
▁длинно	-11.0862
▁соседям	-11.0878
▁выстрелил	-11.0883
коммун	-11.0884
иваясь	-11.0889
▁холост	-11.0901
▁гвоздь	-11.0903
▁макдональдс	-11.0903
▁молодежь	-11.0903
▁повышение	-11.0903
▁противоположн	-11.0903
▁хозяев	-11.0903
▁покемон	-11.0903
▁шапочка	-11.0903
▁относительно	-11.0903
▁август	-11.0903
▁одиночество	-11.0903
▁подошла	-11.0903
▁продлева	-11.0903
▁оркестр	-11.0903
▁содержание	-11.0903
▁челюсть	-11.0903
▁бревно	-11.0903
▁уровня	-11.0903
▁буфет	-11.0903
▁забудь	-11.0903
▁спеши	-11.0903
▁пластик	-11.0903
▁подводн	-11.0904
▁перейти	-11.0904
▁батенька	-11.0904
▁всякие	-11.0905
▁трактор	-11.0905
▁глагол	-11.0906
▁хранить	-11.0907
▁надувн	-11.0908
▁признает	-11.0912
▁плохим	-11.0914
▁концу	-11.0915
▁отказаться	-11.0915
▁геев	-11.0917
▁рван	-11.0919
▁садись	-11.0921
▁волосат	-11.0923
▁откладыва	-11.0924
▁назовите	-11.0924
▁сделайте	-11.0925
▁пепел	-11.093
▁родине	-11.093
▁третьем	-11.0934
▁зачет	-11.0935
▁скоростью	-11.0939
▁закрываю	-11.0941
▁тормозит	-11.0943
▁началась	-11.0944
▁готовлю	-11.0945
▁устроился	-11.0947
▁классная	-11.0953
▁выделя	-11.0957
▁позволяю	-11.0957
▁прошлого	-11.096
▁удаля	-11.0963
давить	-11.0965
▁зубами	-11.0966
▁привезли	-11.0969
▁перешл	-11.0976
▁дерга	-11.098
сыпать	-11.0986
▁физическ	-11.0993
▁превратил	-11.0998
▁заметно	-11.1015
парень	-11.102
▁японски	-11.1042
▁спортивны	-11.105
▁двум	-11.1064
▁запрос	-11.1088
▁посоветуй	-11.1091
▁гардероб	-11.1091
▁дяденька	-11.1091
▁маленькую	-11.1091
▁медицина	-11.1091
▁огурцы	-11.1091
▁подружки	-11.1091
▁предлагать	-11.1091
▁жалуетесь	-11.1091
▁закричал	-11.1091
▁системы	-11.1091
▁стоимость	-11.1092
▁страдает	-11.1092
▁зомби	-11.1092
▁родительско	-11.1092
▁склон	-11.1092
▁навальный	-11.1092
▁спереди	-11.1093
▁плевать	-11.1093
▁путевк	-11.1093
▁едой	-11.1094
▁хренов	-11.1094
▁женишься	-11.1094
▁находятся	-11.1094
▁суток	-11.1095
▁вадик	-11.1095
▁понравился	-11.1097
▁сирии	-11.1098
▁сломан	-11.1099
▁страшнее	-11.1099
▁предложить	-11.1102
подростк	-11.1102
▁спешите	-11.1102
▁английский	-11.1103
▁бетон	-11.1103
▁отключили	-11.1103
▁случаях	-11.1104
▁купишь	-11.1111
▁фотография	-11.1115
▁рабочем	-11.1118
▁больных	-11.112
▁веселый	-11.1121
▁черного	-11.1125
▁нужда	-11.1131
▁налоговой	-11.1132
▁крупно	-11.1138
гадать	-11.1141
▁попроси	-11.1142
▁получал	-11.1142
▁обоих	-11.1169
▁жаб	-11.1169
▁танцует	-11.1171
▁закрыты	-11.1196
▁начни	-11.1205
лезает	-11.1209
уху	-11.1212
фотограф	-11.1212
▁хвата	-11.1213
ительные	-11.1216
▁собачка	-11.122
▁выбрасыва	-11.1233
парад	-11.1243
▁полезны	-11.1244
▁бросать	-11.1245
▁разочарован	-11.1273
▁портит	-11.1274
▁добрым	-11.1276
▁стена	-11.1277
▁наказан	-11.1279
▁извращен	-11.1282
▁выгляжу	-11.1284
▁информации	-11.1284
▁лукашенко	-11.1284
▁свобода	-11.1284
▁совершил	-11.1284
▁апельсин	-11.1284
▁дыхание	-11.1284
▁муромец	-11.1284
▁сентября	-11.1284
▁обручальн	-11.1284
▁подписал	-11.1284
▁дизайн	-11.1284
▁тишина	-11.1284
▁домашний	-11.1284
▁рыбалке	-11.1284
▁придумать	-11.1284
▁лестнице	-11.1284
▁секретарше	-11.1284
▁поцелуе	-11.1284
▁выясня	-11.1284
▁аромат	-11.1284
▁актрис	-11.1284
▁повысил	-11.1284
▁стихи	-11.1284
▁колеса	-11.1285
▁сестре	-11.1285
▁сервер	-11.1285
▁бывало	-11.1286
▁уйдет	-11.1286
▁бардак	-11.1286
▁пздец	-11.1286
▁рынок	-11.1287
▁нефти	-11.1287
▁сдачи	-11.1287
▁китайцев	-11.1288
▁вспоминаю	-11.1288
▁грив	-11.1289
▁направо	-11.129
▁простуд	-11.1292
▁удовольствия	-11.1293
▁лжи	-11.1293
▁радостн	-11.1295
▁чин	-11.1296
▁курение	-11.1298
держаться	-11.1301
▁техники	-11.1303
▁мария	-11.1303
▁пальцами	-11.1304
▁некому	-11.1305
▁семейная	-11.1307
▁пуд	-11.1307
▁низко	-11.1307
нимаешь	-11.131
▁кашу	-11.1312
▁болот	-11.1317
▁держу	-11.1319
огнал	-11.1319
▁следить	-11.1323
▁шестой	-11.1325
▁бедных	-11.1327
▁избран	-11.1328
▁гид	-11.133
▁ученым	-11.1332
▁выросли	-11.1344
▁японск	-11.1346
орвался	-11.1354
▁четверо	-11.1363
разить	-11.1372
▁кличко	-11.1377
▁разговаривал	-11.1392
▁мелоч	-11.1396
▁платит	-11.1396
▁степа	-11.1398
▁ещ	-11.1402
студент	-11.1408
▁сожр	-11.1443
думает	-11.1445
говариваю	-11.1461
▁мудро	-11.1462
▁искусств	-11.1463
▁закуп	-11.1464
▁яиц	-11.1467
мазал	-11.147
крываешь	-11.1471
▁выяснил	-11.1479
▁догадались	-11.148
петербург	-11.148
▁беременности	-11.148
▁зеркала	-11.148
▁криминальн	-11.148
▁михайлов	-11.148
▁недостатки	-11.148
▁нечаянно	-11.148
▁обстоятельств	-11.148
▁свекровь	-11.148
▁синоптик	-11.148
▁украинцев	-11.148
▁шампанского	-11.148
▁гвозди	-11.148
▁золотые	-11.148
▁партизан	-11.148
▁повысить	-11.148
▁судьбы	-11.148
▁конверт	-11.148
▁прыжк	-11.148
▁картошка	-11.148
▁дверях	-11.148
▁ювелир	-11.148
▁бодуна	-11.148
▁относится	-11.148
▁командировку	-11.148
▁мвд	-11.148
▁премию	-11.148
▁уважаю	-11.148
▁пороге	-11.148
▁потолок	-11.148
▁дышит	-11.148
▁академи	-11.1481
▁наград	-11.1481
▁программу	-11.1481
▁пластическ	-11.1481
▁вовочке	-11.1481
▁испортить	-11.1481
▁вдоль	-11.1482
ставку	-11.1484
▁планирует	-11.1487
▁постара	-11.1488
▁выкинул	-11.1488
▁супружеский	-11.1489
▁женится	-11.1489
▁обама	-11.1489
▁красивую	-11.1489
▁убежден	-11.149
▁последнюю	-11.1491
▁пищи	-11.1491
▁путан	-11.1491
▁рассказывают	-11.1492
▁монгол	-11.1493
▁декан	-11.1494
▁пустыне	-11.1495
▁отделение	-11.1497
▁активно	-11.1497
▁забываю	-11.1499
▁небес	-11.1499
валивается	-11.1499
▁кактус	-11.1502
▁спам	-11.1504
▁личности	-11.1505
▁снежн	-11.1506
▁обыск	-11.1507
▁запросто	-11.1508
▁сапер	-11.1508
▁домик	-11.151
▁генеральн	-11.151
▁предел	-11.1511
▁государств	-11.1516
езжают	-11.1516
▁натурал	-11.152
▁рассказ	-11.1525
▁упад	-11.1535
ведешь	-11.1536
▁установил	-11.1545
▁варить	-11.1548
рублев	-11.1564
▁отдает	-11.1569
ставишь	-11.1579
▁ксени	-11.1595
▁доказал	-11.1606
продавец	-11.1608
▁заключен	-11.1622
▁брось	-11.164
▁ранен	-11.1641
полос	-11.1657
▁устраива	-11.167
▁вреза	-11.1671
▁выброс	-11.1673
тереть	-11.1677
▁кличк	-11.1678
▁администратор	-11.168
▁ближайше	-11.168
▁возвращен	-11.168
▁воспринима	-11.168
▁глубоки	-11.168
▁зачастую	-11.168
▁лайфхак	-11.168
▁проглотил	-11.168
▁соблазн	-11.168
▁употреблени	-11.168
▁одессит	-11.168
▁преимуществ	-11.168
▁каблук	-11.168
▁мальчиш	-11.168
▁подозрени	-11.168
▁поколения	-11.168
▁вытаскива	-11.168
▁подружка	-11.168
▁молодожен	-11.168
▁стадион	-11.168
▁комитет	-11.168
▁разведчик	-11.168
▁пенсия	-11.168
▁близки	-11.168
▁зятю	-11.168
▁вернется	-11.168
▁эффективно	-11.1681
▁веществ	-11.1681
▁людях	-11.1681
▁норков	-11.1681
▁машенька	-11.1682
▁удалась	-11.1682
▁вышло	-11.1682
▁доверять	-11.1683
▁женских	-11.1684
бирается	-11.1685
▁цех	-11.1685
▁окружающих	-11.1686
▁халат	-11.1686
▁громче	-11.1688
▁неприятности	-11.1689
▁багажник	-11.1689
▁собрание	-11.169
▁женись	-11.169
▁обществе	-11.1692
▁танец	-11.1693
▁зарплатой	-11.1694
▁диета	-11.1695
▁исход	-11.1695
▁английского	-11.1696
▁правды	-11.1697
▁взрослых	-11.1698
▁взрослые	-11.17
▁полетел	-11.1705
▁производ	-11.1706
▁великий	-11.1707
▁почерк	-11.1709
▁белое	-11.1711
▁чешет	-11.1712
▁обеспечен	-11.1713
▁колян	-11.1714
▁горячей	-11.1715
▁военные	-11.1721
▁верховн	-11.1724
▁зубной	-11.1731
▁выпей	-11.1732
▁косяк	-11.175
▁зин	-11.175
▁никит	-11.1769
являются	-11.1769
▁дно	-11.1779
вспомина	-11.1781
▁зарабатывает	-11.1788
▁брюнетка	-11.1792
дыша	-11.1794
▁модели	-11.1807
ирования	-11.1808
другому	-11.1823
▁защища	-11.1824
▁уйду	-11.183
▁катал	-11.183
▁брюк	-11.1834
▁пузыр	-11.1873
▁снят	-11.1876
▁восемнадцат	-11.1884
▁христиан	-11.1884
▁ближайши	-11.1884
▁болельщик	-11.1884
▁валентин	-11.1884
▁виагры	-11.1884
▁кефир	-11.1884
▁комфорт	-11.1884
▁кондиционер	-11.1884
▁конкретно	-11.1884
▁конфликт	-11.1884
▁мандарин	-11.1884
▁невероятн	-11.1884
▁ошибку	-11.1884
▁повзросле	-11.1884
▁события	-11.1884
▁спонсор	-11.1884
▁студенческ	-11.1884
▁эротически	-11.1884
▁ненавидит	-11.1884
▁снегурочк	-11.1884
▁дельфин	-11.1884
▁каникул	-11.1884
▁анатоли	-11.1884
▁штопор	-11.1884
▁ожидал	-11.1884
▁читаешь	-11.1884
▁охоту	-11.1884
▁король	-11.1884
▁культуры	-11.1884
▁витамин	-11.1885
▁скорую	-11.1885
▁добиться	-11.1885
царевич	-11.1885
▁вторые	-11.1885
▁политически	-11.1885
▁одноразов	-11.1885
▁больших	-11.1886
▁исполнилось	-11.1887
▁потерпев	-11.1887
▁оператор	-11.1888
▁ненужн	-11.1888
▁рынка	-11.1888
▁девка	-11.1889
▁молотком	-11.1889
▁отсутствия	-11.189
▁загора	-11.1893
▁доверяю	-11.1894
▁бегут	-11.1894
▁пузырь	-11.1894
▁житель	-11.1896
▁планете	-11.1896
▁опусти	-11.1897
▁мобильный	-11.1898
▁условиях	-11.1899
▁пытались	-11.19
▁тревож	-11.1901
▁американского	-11.1903
▁создания	-11.1904
▁терять	-11.1905
▁третьей	-11.1906
▁злые	-11.1908
▁пивной	-11.1909
▁приносят	-11.1909
▁помогают	-11.191
▁компот	-11.1911
бежит	-11.1913
технологи	-11.1921
▁огранич	-11.1923
▁интересная	-11.1926
▁гадость	-11.1926
чиха	-11.1928
режет	-11.1931
▁целует	-11.1939
▁четверг	-11.194
▁паук	-11.1947
▁тупым	-11.1948
▁вуз	-11.1949
▁выруч	-11.1962
▁исключен	-11.1966
▁убийство	-11.1968
▁замечательн	-11.1973
ключать	-11.1973
▁включает	-11.1978
▁дожди	-11.1978
▁везу	-11.2006
▁сменил	-11.2013
▁отпустил	-11.2019
▁призывник	-11.2026
шоу	-11.203
стоящей	-11.2033
▁закрывает	-11.2036
▁доклад	-11.2066
▁транс	-11.2077
▁безработн	-11.2092
▁декольте	-11.2092
▁евросоюз	-11.2092
▁заявление	-11.2092
▁исследования	-11.2092
▁корабля	-11.2092
▁медицины	-11.2092
▁ненавидят	-11.2092
▁обещания	-11.2092
▁одежде	-11.2092
▁олимпиаде	-11.2092
▁подтверди	-11.2092
▁полотенце	-11.2092
▁профессии	-11.2092
▁шампунь	-11.2092
▁зеркале	-11.2092
▁пропустил	-11.2092
▁тридцати	-11.2092
▁выдерживает	-11.2092
▁пушист	-11.2092
▁николая	-11.2092
▁кончается	-11.2092
▁разврат	-11.2092
▁пофиг	-11.2092
▁пятачок	-11.2092
▁юбку	-11.2092
▁уехать	-11.2092
▁храбр	-11.2092
▁бывшей	-11.2093
▁грузовик	-11.2093
▁давление	-11.2093
▁коврик	-11.2093
▁силикон	-11.2093
▁подарю	-11.2093
▁удивительны	-11.2093
▁покупай	-11.2093
▁ревнив	-11.2093
▁халяв	-11.2093
▁скелет	-11.2094
▁географии	-11.2094
▁извращенец	-11.2094
▁решают	-11.2094
▁поднимать	-11.2095
▁полночь	-11.2096
▁двигатель	-11.2096
▁общество	-11.2097
▁среднем	-11.2098
▁принимал	-11.2098
▁предложения	-11.21
▁понимани	-11.21
▁обидеть	-11.21
▁девиз	-11.21
▁либерал	-11.2101
▁раствор	-11.2102
▁расстаться	-11.2102
▁кататься	-11.2102
▁выучил	-11.2102
▁знания	-11.2103
▁неловко	-11.2105
▁перегар	-11.2106
▁голосовать	-11.2109
скреб	-11.211
▁фанат	-11.2111
▁туман	-11.2111
▁принесите	-11.2111
▁ложится	-11.2114
ношен	-11.2119
▁джек	-11.212
жимает	-11.2124
▁остальным	-11.2131
▁красного	-11.2131
▁огромная	-11.2134
▁банковск	-11.214
▁кадр	-11.215
▁включить	-11.2153
▁забрать	-11.2164
падения	-11.2166
несло	-11.2168
▁неприятн	-11.217
▁кормят	-11.217
▁гиб	-11.2175
▁использу	-11.2186
▁мелочь	-11.2194
▁черным	-11.22
▁лишил	-11.2204
▁производит	-11.2219
▁минерал	-11.2219
▁россиянам	-11.2221
ремонт	-11.2234
▁дереве	-11.2254
исполнен	-11.2268
▁скотч	-11.2269
▁строг	-11.2272
писывать	-11.2282
▁отстань	-11.2286
ставим	-11.2287
▁завари	-11.2289
▁пропуск	-11.2298
считал	-11.2299
▁вырастешь	-11.2305
▁конкурент	-11.2305
▁кресле	-11.2305
▁параллельн	-11.2305
▁повышения	-11.2305
▁телевидение	-11.2305
▁улыбка	-11.2305
▁услышав	-11.2305
▁успокойтесь	-11.2305
▁фальшив	-11.2305
▁янукович	-11.2305
▁любовницу	-11.2305
▁парламент	-11.2305
▁поцеловать	-11.2305
▁публично	-11.2305
▁воздушны	-11.2305
▁согласны	-11.2305
▁восторг	-11.2305
▁дональд	-11.2305
▁милицию	-11.2305
▁чужую	-11.2305
▁игнор	-11.2305
▁копеек	-11.2305
▁аналог	-11.2305
▁коллекци	-11.2305
▁детские	-11.2305
▁узбек	-11.2305
▁спермы	-11.2305
▁трижды	-11.2305
▁госдеп	-11.2305
▁стараюсь	-11.2306
▁окружен	-11.2306
▁воняет	-11.2306
▁полицейско	-11.2306
▁посещени	-11.2306
▁элитн	-11.2306
▁подойти	-11.2306
▁отравил	-11.2307
▁вторник	-11.2307
▁больничн	-11.2308
▁коленях	-11.2308
▁израиле	-11.2308
▁партию	-11.2308
▁передачи	-11.2308
▁женскую	-11.2309
▁фирма	-11.2309
▁оставаться	-11.231
жгли	-11.231
▁оторвать	-11.231
▁жестоко	-11.231
▁корее	-11.2311
▁откройте	-11.2312
▁приключения	-11.2313
▁прощения	-11.2315
▁хватало	-11.2315
▁развития	-11.2315
▁возвращаться	-11.2319
▁серьезные	-11.232
▁началось	-11.2324
▁грибами	-11.2328
▁татар	-11.2328
▁воспитанный	-11.2329
▁босс	-11.2331
▁целым	-11.2333
▁женском	-11.2334
▁песок	-11.2334
▁материться	-11.2335
▁сниму	-11.2338
▁погре	-11.2338
▁горящ	-11.2338
▁куб	-11.2338
▁мечтают	-11.2339
▁орать	-11.234
▁австр	-11.2343
▁покида	-11.2349
▁проезжа	-11.2351
▁обозвал	-11.2357
▁рожать	-11.2366
▁разгон	-11.238
▁поставь	-11.24
▁россиянин	-11.2403
гоняют	-11.2405
▁сгор	-11.2421
казывают	-11.2449
женщина	-11.2451
матери	-11.2472
▁кинул	-11.2476
▁встрети	-11.2484
▁приказ	-11.2489
▁червяк	-11.2495
▁человеч	-11.2499
▁предложен	-11.2503
▁продает	-11.2505
сматривает	-11.2509
▁пустил	-11.2512
▁динозавр	-11.2522
▁жопой	-11.2522
▁коррупции	-11.2522
▁наблюдает	-11.2522
▁ощущения	-11.2522
▁позавчера	-11.2522
▁попытки	-11.2522
▁продолжают	-11.2522
▁проституток	-11.2522
▁тюрьму	-11.2522
▁инструмент	-11.2522
▁публичны	-11.2522
▁сперматозоид	-11.2522
▁длиннее	-11.2522
▁загадка	-11.2522
▁любовницы	-11.2522
▁посольств	-11.2522
▁следующего	-11.2522
▁проснуться	-11.2522
▁пугает	-11.2522
▁поехать	-11.2522
▁рамках	-11.2522
▁убедительн	-11.2522
▁щедр	-11.2522
▁прочитать	-11.2522
▁смеются	-11.2522
▁шапку	-11.2522
▁шепотом	-11.2522
▁сказочн	-11.2523
▁болеть	-11.2523
▁пострадал	-11.2523
▁совместно	-11.2523
▁березов	-11.2523
▁покурить	-11.2523
▁поймет	-11.2523
▁японии	-11.2523
▁висят	-11.2523
▁тревог	-11.2523
▁дверей	-11.2524
▁загорел	-11.2524
▁поедем	-11.2524
▁маркович	-11.2524
▁горох	-11.2524
▁бабушек	-11.2524
▁нажрался	-11.2524
▁проснулась	-11.2524
▁кукушка	-11.2524
▁сосиски	-11.2525
▁максимум	-11.2525
▁благородн	-11.2526
▁занимаетесь	-11.2526
▁складывается	-11.2526
▁хлам	-11.2526
▁орех	-11.2526
▁сотни	-11.2526
▁пирог	-11.2527
▁романтическ	-11.2527
▁приносил	-11.2528
▁музее	-11.253
▁уволен	-11.2531
▁стоило	-11.2532
▁чья	-11.2534
▁лечения	-11.2535
▁указан	-11.2535
▁милочка	-11.2537
▁изменял	-11.2538
▁песков	-11.254
▁получишь	-11.2542
▁перешел	-11.2546
▁собран	-11.2552
бодр	-11.2568
▁поздравляю	-11.2577
▁чмо	-11.2584
▁защищать	-11.2591
▁нюх	-11.2597
▁тайно	-11.2601
▁держал	-11.2605
▁стадо	-11.2608
▁работающи	-11.261
▁застал	-11.2616
▁целовал	-11.2619
▁стыд	-11.2625
▁мучает	-11.2644
зываешь	-11.2645
▁максимальн	-11.2646
▁единственно	-11.2648
звезд	-11.2674
▁закат	-11.2679
▁непонят	-11.2681
подъезжа	-11.2681
▁способность	-11.2686
▁богатств	-11.2704
▁удивленно	-11.2706
▁кормит	-11.2708
метров	-11.2714
▁помогал	-11.2718
▁личность	-11.2721
▁выполнен	-11.2723
восток	-11.2725
▁выключил	-11.273
▁массово	-11.2731
▁тащит	-11.2744
▁умудри	-11.2745
экстрасенс	-11.2745
▁министерство	-11.2745
▁неприлично	-11.2745
▁обращаться	-11.2745
▁отопление	-11.2745
▁проверяет	-11.2745
▁проверяю	-11.2745
▁спектакл	-11.2745
▁установить	-11.2745
▁девяност	-11.2745
▁обувь	-11.2745
▁фильтр	-11.2745
▁рубашку	-11.2745
▁подбород	-11.2745
▁сокраща	-11.2745
▁таблиц	-11.2745
▁копейки	-11.2745
▁крышу	-11.2745
▁прислали	-11.2745
▁разряд	-11.2745
▁рыбалки	-11.2745
▁действует	-11.2745
▁угадай	-11.2745
▁кайф	-11.2745
▁шерсть	-11.2745
▁каприз	-11.2745
▁едешь	-11.2745
▁засунул	-11.2745
▁круче	-11.2745
▁почта	-11.2746
▁жадно	-11.2747
▁подлец	-11.2747
▁удивит	-11.2747
▁кокаин	-11.2748
▁певиц	-11.2748
▁теряет	-11.2749
▁ртом	-11.2749
▁достать	-11.2749
▁сервис	-11.275
▁флеш	-11.275
▁длинный	-11.2751
▁купаться	-11.2752
▁придуман	-11.2752
▁успевает	-11.2752
▁угости	-11.2752
▁курицы	-11.2752
▁восточн	-11.2754
▁мокры	-11.2754
ставки	-11.2755
▁европу	-11.2755
▁произведен	-11.2755
▁пастор	-11.2756
▁олень	-11.2759
▁правильный	-11.276
▁плавает	-11.2761
▁делится	-11.2761
▁встаю	-11.2762
▁спрашивай	-11.2766
▁грязные	-11.277
▁границей	-11.2776
▁пенис	-11.2796
▁успеваю	-11.2806
ическом	-11.2809
▁тупик	-11.2812
▁укол	-11.2813
▁гомо	-11.2825
твоему	-11.2825
▁вероятность	-11.2828
▁сосать	-11.2841
▁преступн	-11.2865
▁написан	-11.2882
английски	-11.2899
▁аккурат	-11.29
▁взрослым	-11.2901
водитель	-11.2903
▁знание	-11.2919
▁ленивы	-11.2919
▁рассчита	-11.292
▁делить	-11.2932
▁красавиц	-11.2951
▁сошли	-11.2951
▁появля	-11.2963
личных	-11.2964
клеить	-11.2965
▁бюстгальтер	-11.2972
▁инструкции	-11.2972
▁поликлинику	-11.2972
▁правительству	-11.2972
▁предназначен	-11.2972
▁солнца	-11.2972
▁соцсетях	-11.2972
▁танцевать	-11.2972
▁традиции	-11.2972
▁улучшени	-11.2972
▁улыбкой	-11.2972
▁археолог	-11.2972
▁благополуч	-11.2972
▁египет	-11.2972
▁заинтересова	-11.2972
▁микроволнов	-11.2972
▁напоминаю	-11.2972
▁одежда	-11.2972
▁подозреваю	-11.2972
▁самоубийств	-11.2972
▁человечества	-11.2972
▁вначале	-11.2972
▁климат	-11.2972
▁сочинение	-11.2972
▁спрятать	-11.2972
▁купальник	-11.2972
▁фонтан	-11.2972
▁казино	-11.2972
▁тарелки	-11.2972
▁сохраня	-11.2972
▁отпечат	-11.2972
▁жидкость	-11.2972
▁фотки	-11.2972
▁слесар	-11.2972
▁компанию	-11.2972
▁детских	-11.2972
▁засунуть	-11.2972
▁мчс	-11.2972
▁уточни	-11.2972
▁подойдет	-11.2972
▁занавес	-11.2972
▁сеанс	-11.2972
▁шаурм	-11.2972
▁казах	-11.2972
▁жкх	-11.2972
▁фашист	-11.2972
▁чашечк	-11.2973
▁говна	-11.2973
▁девочке	-11.2973
▁планшет	-11.2973
▁вызвать	-11.2973
▁класть	-11.2973
▁мягко	-11.2973
▁тетрад	-11.2973
▁жора	-11.2973
зависимость	-11.2974
▁общества	-11.2975
▁чужим	-11.2975
▁красивее	-11.2975
▁договорились	-11.2975
▁профессиональны	-11.2976
▁вовочки	-11.2976
▁побывал	-11.2978
▁леночка	-11.2981
▁задницы	-11.2981
▁бумажник	-11.2982
▁тетка	-11.2983
▁кабан	-11.2984
▁пытаюсь	-11.2985
▁сейф	-11.2986
▁уволить	-11.2986
▁чушь	-11.2986
▁небось	-11.2987
▁огромное	-11.2989
▁вкуснее	-11.2992
▁стерва	-11.2994
▁столкну	-11.2997
▁колокол	-11.3004
▁позвал	-11.3006
▁ирони	-11.301
▁основан	-11.3013
ительным	-11.3023
▁лекарств	-11.3035
▁отдохнул	-11.3038
▁выходил	-11.3044
хранитель	-11.3047
▁падал	-11.3066
▁открытие	-11.3078
▁повторить	-11.3083
▁неудачник	-11.309
▁оказыва	-11.3129
цвет	-11.3135
скакал	-11.3158
▁используют	-11.3165
говаривал	-11.3185
▁забива	-11.3189
возят	-11.3201
апокалипсис	-11.3204
▁браузер	-11.3204
▁возмущается	-11.3204
▁домашних	-11.3204
▁запорожец	-11.3204
▁нарисован	-11.3204
▁одиннадцат	-11.3204
▁оказаться	-11.3204
▁оптимизм	-11.3204
▁переименовать	-11.3204
▁побеждает	-11.3204
▁поздравить	-11.3204
▁потратить	-11.3204
▁снаружи	-11.3204
▁собеседник	-11.3204
▁собственный	-11.3204
▁капусте	-11.3204
▁короткий	-11.3204
▁почтальон	-11.3204
▁следующее	-11.3204
▁тихонько	-11.3204
▁пугать	-11.3204
▁успеть	-11.3204
▁прописал	-11.3204
▁рождаются	-11.3204
▁вечеринке	-11.3204
▁юноша	-11.3204
▁лежишь	-11.3204
▁среднего	-11.3204
▁мистер	-11.3205
▁жрешь	-11.3205
▁ремень	-11.3205
▁дяди	-11.3205
▁сильная	-11.3205
▁закапыва	-11.3205
▁италии	-11.3205
▁скорая	-11.3206
▁бюст	-11.3206
▁дождя	-11.3206
▁порога	-11.3206
▁варенье	-11.3207
▁встретишь	-11.3207
▁ученых	-11.3207
▁китая	-11.3207
▁джип	-11.3207
▁робин	-11.3207
▁вновь	-11.3208
▁озеро	-11.3208
▁фоне	-11.3208
▁палатк	-11.3209
▁настроения	-11.3209
▁состояния	-11.321
▁талантлив	-11.3212
▁пельменей	-11.3212
▁расстроил	-11.3212
▁страус	-11.3213
▁расстались	-11.3213
▁плоско	-11.3213
▁галкин	-11.3214
▁замечательный	-11.3215
▁тошнит	-11.3215
▁сатан	-11.3219
▁чувствовать	-11.3222
говорить	-11.3222
▁бледн	-11.3227
▁выходишь	-11.3227
▁персонал	-11.3228
▁аборт	-11.3228
▁оценив	-11.3235
▁советского	-11.3238
▁кратк	-11.3242
▁построен	-11.3243
зывайте	-11.3254
▁запута	-11.3259
▁слуг	-11.3262
▁аренд	-11.3264
▁висел	-11.3267
мазать	-11.3268
▁образова	-11.3273
глядел	-11.3279
▁пельмен	-11.3305
▁окоп	-11.3312
вернувшись	-11.3314
обрадова	-11.3318
▁график	-11.3323
энд	-11.3337
▁проводник	-11.3338
▁завалил	-11.3346
ползает	-11.3364
▁изобрел	-11.3369
хорошо	-11.3371
▁каменн	-11.3402
▁объявля	-11.3414
▁родить	-11.3416
▁тратит	-11.3418
▁санк	-11.3427
▁размнож	-11.3442
▁электрическ	-11.3443
▁выглядят	-11.3443
▁десантник	-11.3443
▁законопроект	-11.3443
▁замечено	-11.3443
▁лишнего	-11.3443
▁роскошь	-11.3443
▁треугольник	-11.3443
▁упаковке	-11.3443
▁кривые	-11.3443
▁оправдыва	-11.3443
▁подоконник	-11.3443
▁попытка	-11.3443
▁фокус	-11.3443
▁покупки	-11.3443
▁корабле	-11.3443
▁нефтян	-11.3443
▁поверишь	-11.3443
▁пишешь	-11.3443
▁посидеть	-11.3443
мазохист	-11.3443
▁голосования	-11.3443
▁следующем	-11.3443
▁чукчи	-11.3443
▁сказке	-11.3443
▁клавиш	-11.3443
▁софочка	-11.3443
▁недовольны	-11.3443
▁водители	-11.3443
▁спрашиваешь	-11.3443
▁экскурси	-11.3443
▁замечал	-11.3443
▁федеральн	-11.3443
▁сидим	-11.3443
▁масок	-11.3443
▁всякую	-11.3443
▁всяких	-11.3443
▁разбудил	-11.3443
▁электронны	-11.3443
▁почитать	-11.3443
▁поедешь	-11.3443
▁аватар	-11.3443
▁течет	-11.3443
▁передумал	-11.3443
▁турецк	-11.3443
▁разрешите	-11.3444
▁рэп	-11.3444
▁поиграть	-11.3444
▁анжел	-11.3444
▁жаловаться	-11.3444
▁ждем	-11.3445
▁камни	-11.3445
▁держитесь	-11.3446
▁сечин	-11.3446
▁шлеп	-11.3446
▁заново	-11.3447
▁оставь	-11.3447
▁орбит	-11.3447
▁выжить	-11.3448
▁львов	-11.3448
▁плохих	-11.3449
▁допрос	-11.3449
▁перестанет	-11.345
▁хвастается	-11.345
▁низки	-11.345
▁розочка	-11.345
▁вдох	-11.3451
▁плод	-11.3451
▁кончились	-11.3451
▁младший	-11.3451
▁сыночек	-11.3452
▁штаб	-11.3452
▁целях	-11.3452
▁зарплат	-11.3454
▁заснул	-11.3455
▁занимаюсь	-11.3456
▁купленн	-11.3457
▁общения	-11.3459
▁врешь	-11.3459
▁назначил	-11.346
▁прокат	-11.3474
▁англичанин	-11.3481
иваюсь	-11.3495
▁выигрыва	-11.3507
▁приказал	-11.3522
▁пожилы	-11.3523
▁отличи	-11.3527
▁обстановк	-11.3539
▁находя	-11.3545
бирая	-11.3547
▁удачн	-11.3548
▁бухал	-11.3549
▁залив	-11.3561
▁сельско	-11.3562
▁скрыт	-11.3564
▁алле	-11.3574
▁жук	-11.3608
чистил	-11.361
хочешь	-11.3615
▁использует	-11.3619
▁ранне	-11.3632
▁разобрать	-11.365
помни	-11.3685
▁тренажер	-11.3686
▁участков	-11.3686
▁элемент	-11.3686
▁возьмешь	-11.3686
▁допустим	-11.3686
▁кулинарн	-11.3686
▁наблюдени	-11.3686
▁новостях	-11.3686
▁озабочен	-11.3686
▁отвратительн	-11.3686
▁персонаж	-11.3686
▁поближе	-11.3686
▁подозрительно	-11.3686
▁рекламы	-11.3686
▁сусанин	-11.3686
▁быстренько	-11.3686
▁вырастет	-11.3686
▁накануне	-11.3686
▁настоящим	-11.3686
▁перезвони	-11.3686
▁ограбил	-11.3686
▁свежие	-11.3686
▁штанах	-11.3686
▁внешность	-11.3686
▁сделаем	-11.3686
▁форточку	-11.3686
▁предпринима	-11.3686
▁недалеко	-11.3686
▁запустил	-11.3687
▁крестьян	-11.3687
▁подъем	-11.3687
▁разумеется	-11.3687
▁схватил	-11.3687
▁нарколог	-11.3687
▁сделаешь	-11.3687
▁выиграть	-11.3687
▁изнутри	-11.3687
▁сумку	-11.3687
▁резиновы	-11.3687
▁вылечил	-11.3687
▁происходя	-11.3687
▁вселенной	-11.3687
▁палату	-11.3687
▁хотеть	-11.3687
▁заодно	-11.3687
▁скучаю	-11.3687
▁похмелье	-11.3688
▁киоск	-11.3688
▁лебед	-11.3688
▁надевать	-11.3688
▁понадобится	-11.3688
▁понес	-11.3688
▁передача	-11.369
▁брови	-11.369
байт	-11.3691
▁масле	-11.3691
▁догнал	-11.3693
▁сэкономить	-11.3693
▁высовыва	-11.3693
▁сажать	-11.3694
▁кладут	-11.3694
▁периодически	-11.3696
▁женюсь	-11.3697
▁слышать	-11.3697
▁вздохнул	-11.37
▁лорд	-11.37
▁патриотизм	-11.37
летнего	-11.3705
▁теплее	-11.371
▁курящ	-11.3717
▁интересуют	-11.3724
▁жестко	-11.3731
▁устраивать	-11.3735
▁выбирай	-11.3743
▁выкуп	-11.3759
▁неудачно	-11.3759
ролл	-11.376
рубил	-11.3826
▁высыпа	-11.3832
▁реальны	-11.3841
ведут	-11.3843
крутить	-11.3873
хлеб	-11.3874
▁англичан	-11.3896
▁лишен	-11.3906
полнения	-11.3907
▁умираю	-11.3911
▁двойник	-11.3917
▁сэконом	-11.3929
коррупционер	-11.3936
▁агрессивн	-11.3936
▁безалкогольн	-11.3936
▁бормочет	-11.3936
▁герасим	-11.3936
▁двенадцать	-11.3936
▁донбасс	-11.3936
▁нескольких	-11.3936
▁полицейских	-11.3936
▁положении	-11.3936
▁республик	-11.3936
▁смеялись	-11.3936
▁фейсбук	-11.3936
▁автосервис	-11.3936
▁инициатив	-11.3936
▁надежды	-11.3936
▁требования	-11.3936
▁выйдешь	-11.3936
▁обнаружив	-11.3936
▁сомнения	-11.3936
▁глобально	-11.3936
▁наслажда	-11.3936
▁ожидает	-11.3937
▁охренел	-11.3937
▁царя	-11.3937
▁таджик	-11.3937
▁желательно	-11.3937
▁комплект	-11.3937
▁подробно	-11.3937
▁честный	-11.3937
▁лодке	-11.3937
▁выращива	-11.3937
▁заполня	-11.3937
▁улицах	-11.3937
▁увидишь	-11.3937
лушат	-11.3937
▁твари	-11.3937
▁заставляют	-11.3937
▁постучал	-11.3937
▁физрук	-11.3937
▁спортзал	-11.3937
▁нормальная	-11.3937
▁деньгах	-11.3937
▁прикольно	-11.3938
▁зимы	-11.3938
▁зоны	-11.3938
▁игорь	-11.3938
▁рулон	-11.3939
▁устроен	-11.3939
▁ворует	-11.394
▁повторяю	-11.394
▁отделении	-11.3941
▁негде	-11.3941
▁флот	-11.3941
▁рабочее	-11.3943
▁армянско	-11.3943
▁гимн	-11.3943
▁дяде	-11.3944
▁больница	-11.3944
поведь	-11.3945
▁наутро	-11.3945
▁чашку	-11.3945
▁праздничн	-11.3946
▁звание	-11.3947
▁дедушки	-11.3948
▁жрут	-11.3948
▁сознание	-11.3948
▁заднем	-11.3949
▁предусмотр	-11.3949
▁бойтесь	-11.3951
▁копыт	-11.3953
▁корейск	-11.3954
▁назначен	-11.3962
следствие	-11.3972
хорошему	-11.3974
протрезв	-11.3974
смотреть	-11.3978
▁зонтик	-11.3978
пишем	-11.3982
▁забирает	-11.4004
▁сорвал	-11.4007
▁медаль	-11.4008
только	-11.4013
▁вытира	-11.4044
известный	-11.4057
▁атомн	-11.4069
▁пяли	-11.4073
▁крестик	-11.4079
▁бреет	-11.4112
▁советско	-11.4119
мальчик	-11.4121
▁огляд	-11.4126
▁созна	-11.415
▁зонт	-11.4153
▁прораб	-11.4155
▁подвиг	-11.4169
▁поздн	-11.4171
▁бен	-11.4183
▁подсудим	-11.4184
▁расклад	-11.4189
▁аллергия	-11.4193
▁геморрой	-11.4193
▁книжку	-11.4193
▁огурец	-11.4193
▁очаровательн	-11.4193
▁поздравил	-11.4193
▁предпочитает	-11.4193
▁прекраща	-11.4193
▁приснилось	-11.4193
▁продолжал	-11.4193
▁роскосмос	-11.4193
▁фермер	-11.4193
▁зоомагазин	-11.4193
▁кнопки	-11.4193
▁объясняю	-11.4193
▁процедур	-11.4193
▁реанимаци	-11.4193
▁стринги	-11.4193
▁колумб	-11.4193
▁обращаю	-11.4193
▁поцарапа	-11.4193
▁украша	-11.4193
▁тьфу	-11.4193
▁кодекс	-11.4193
▁обморок	-11.4193
▁подвыпивш	-11.4193
▁коммунизм	-11.4193
▁коробку	-11.4193
▁разгадыва	-11.4193
▁сумма	-11.4193
▁лекция	-11.4193
▁проголосовал	-11.4193
▁розетку	-11.4193
▁застегн	-11.4193
▁доволен	-11.4193
▁попрошу	-11.4193
▁регион	-11.4193
▁крыши	-11.4193
▁штурм	-11.4193
▁историческ	-11.4193
▁добился	-11.4193
▁смертельн	-11.4193
стандарт	-11.4194
▁хорошенько	-11.4194
▁полоски	-11.4194
▁расположен	-11.4194
▁группу	-11.4194
▁фотка	-11.4194
▁героя	-11.4194
▁почты	-11.4194
▁ильич	-11.4194
▁золушка	-11.4194
▁обуви	-11.4194
▁взлома	-11.4195
▁наливай	-11.4196
▁преступления	-11.4196
▁забывайте	-11.4197
▁снится	-11.4197
▁зашли	-11.42
▁пыш	-11.4204
▁радистк	-11.4208
ходящий	-11.421
▁червя	-11.4225
▁подарка	-11.4228
▁удалил	-11.4228
▁угнал	-11.4231
▁протира	-11.4241
▁строчк	-11.4243
▁погас	-11.425
крестили	-11.4252
▁велел	-11.4277
▁уверенность	-11.4278
▁груд	-11.4287
▁осматрива	-11.429
▁массовы	-11.4296
▁желто	-11.43
дохнуть	-11.4311
▁выезжа	-11.4311
▁раскрыт	-11.4315
хватить	-11.4354
казывая	-11.4372
мюллер	-11.4385
▁сорв	-11.4394
▁добива	-11.4397
▁научно	-11.4405
становку	-11.4408
▁уходя	-11.441
▁заруб	-11.4416
▁разглядыва	-11.442
ируя	-11.4434
▁молдаван	-11.4456
▁американцев	-11.4456
▁вашингтон	-11.4456
▁дерьма	-11.4456
▁заткнись	-11.4456
▁лотерею	-11.4456
▁объяснять	-11.4456
▁ошибке	-11.4456
▁пандемии	-11.4456
▁появление	-11.4456
▁преподавателя	-11.4456
▁приятелю	-11.4456
▁роскомнадзор	-11.4456
▁степень	-11.4456
▁англии	-11.4456
▁представлен	-11.4456
▁свежий	-11.4456
▁увольня	-11.4456
▁ипотека	-11.4456
▁пускай	-11.4456
▁уговорил	-11.4456
▁умирать	-11.4456
▁наблюдаю	-11.4456
▁многим	-11.4456
▁пошутил	-11.4456
▁шляпу	-11.4456
▁юбки	-11.4456
▁биткоин	-11.4456
▁рояль	-11.4456
▁оправдан	-11.4456
▁масла	-11.4456
▁съешь	-11.4456
▁привести	-11.4456
▁пирамид	-11.4457
▁внучок	-11.4457
▁продолжительно	-11.4457
▁пожилой	-11.4457
▁округ	-11.4457
▁паразит	-11.4457
▁экологи	-11.4457
▁планеты	-11.4457
▁автоваз	-11.4457
▁дошло	-11.4457
▁семенович	-11.4457
▁раздевайтесь	-11.4457
▁выступление	-11.4458
▁сожале	-11.4458
▁позови	-11.4458
▁натуре	-11.4459
▁шофер	-11.4461
▁собрании	-11.4461
▁напиться	-11.4463
▁сломалась	-11.4464
▁включи	-11.4464
▁решет	-11.4464
▁июня	-11.4467
▁кушай	-11.4469
▁применени	-11.4482
▁объед	-11.4486
▁настроен	-11.4492
▁таможенник	-11.4494
▁ловил	-11.4515
▁геолог	-11.4521
▁рвет	-11.4527
▁напомнит	-11.4554
▁готовят	-11.4557
▁подобно	-11.4565
очных	-11.4571
мимо	-11.4579
▁передвига	-11.4589
▁представляет	-11.4637
▁неправильн	-11.4662
▁увеличивает	-11.4687
▁требую	-11.4699
украински	-11.4725
▁бессмертны	-11.4726
консультант	-11.4726
▁адекватн	-11.4726
▁валежник	-11.4726
▁великобритани	-11.4726
▁влюбился	-11.4726
▁застукал	-11.4726
▁квитанци	-11.4726
▁маникюр	-11.4726
▁наблюдать	-11.4726
▁нифига	-11.4726
▁офигенн	-11.4726
▁памперс	-11.4726
▁познакомилась	-11.4726
▁покупаешь	-11.4726
▁продавщице	-11.4726
▁собеседование	-11.4726
▁спецслужб	-11.4726
▁сугроб	-11.4726
▁успокоил	-11.4726
▁факультет	-11.4726
▁фотоаппарат	-11.4726
▁экипаж	-11.4726
▁кнопку	-11.4726
▁деревни	-11.4726
▁значения	-11.4726
▁альбом	-11.4726
▁завязыва	-11.4726
▁пристально	-11.4726
▁поженимся	-11.4726
▁теории	-11.4726
▁сказано	-11.4726
▁здания	-11.4726
▁триппер	-11.4726
▁кнопка	-11.4726
▁сергея	-11.4726
▁повышенн	-11.4726
▁украинских	-11.4726
▁танцевал	-11.4726
▁акушер	-11.4726
▁выписал	-11.4726
▁вазелин	-11.4726
▁печени	-11.4726
▁иеговы	-11.4727
▁отряд	-11.4727
▁хобот	-11.4727
▁малахов	-11.4727
▁коробка	-11.4727
▁ориентир	-11.4727
▁морщин	-11.4727
▁ураган	-11.4727
▁ядовит	-11.4727
▁эгоист	-11.4727
▁стараются	-11.4727
▁организации	-11.4728
▁придешь	-11.4728
▁управление	-11.4728
▁сварить	-11.4728
▁внучка	-11.4728
▁ньютон	-11.4728
▁палате	-11.4728
▁колдун	-11.4728
▁комментатор	-11.4729
▁жираф	-11.4729
▁поправки	-11.4729
▁остановка	-11.473
▁женским	-11.473
▁лягушка	-11.473
▁протокол	-11.4731
▁защита	-11.4731
▁рисовать	-11.4731
▁процвета	-11.4731
▁вилкой	-11.4732
▁файл	-11.4732
▁ягодиц	-11.4734
▁прыщ	-11.4736
▁дверц	-11.4738
▁стиль	-11.474
мотал	-11.474
▁помести	-11.4741
▁обойд	-11.4746
▁сегодняшни	-11.4754
▁обманул	-11.4757
▁неизвестны	-11.4768
▁упрек	-11.4769
кря	-11.478
▁обучен	-11.4785
▁увеличил	-11.4806
стекл	-11.4811
▁отруби	-11.4823
▁заключенны	-11.4824
брасывает	-11.4825
▁жизненны	-11.4827
▁мстит	-11.4877
▁течени	-11.4907
▁нажал	-11.4908
▁положительны	-11.491
▁выносит	-11.4916
▁учебн	-11.4946
▁мотив	-11.4947
▁центральн	-11.495
▁сопротивля	-11.5004
▁азербайджан	-11.5004
▁воспитательница	-11.5004
▁детектив	-11.5004
▁использовал	-11.5004
▁конституция	-11.5004
▁лексус	-11.5004
▁некрасивая	-11.5004
▁обращение	-11.5004
▁обсуждени	-11.5004
▁продолжать	-11.5004
▁размышля	-11.5004
▁расстояние	-11.5004
▁строительство	-11.5004
▁таблетку	-11.5004
▁украинца	-11.5004
▁федерации	-11.5004
▁эпидемии	-11.5004
▁взаймы	-11.5004
▁виноград	-11.5004
▁впрочем	-11.5004
▁появятся	-11.5004
▁слушаешь	-11.5004
▁юбилей	-11.5004
▁домофон	-11.5004
▁чучело	-11.5004
▁всерьез	-11.5004
▁значение	-11.5004
▁пополам	-11.5004
▁разбудить	-11.5004
▁разрешение	-11.5004
▁крепостн	-11.5004
▁полюбил	-11.5004
▁встретимся	-11.5004
▁моложе	-11.5004
▁направлении	-11.5004
▁пуховик	-11.5004
▁шоссе	-11.5004
▁баланс	-11.5004
▁хищник	-11.5004
▁сквер	-11.5004
▁желтый	-11.5004
▁кушает	-11.5004
▁сауну	-11.5004
▁млн	-11.5004
браслет	-11.5004
▁крыша	-11.5004
▁куртку	-11.5004
▁списке	-11.5005
▁решено	-11.5005
▁бензо	-11.5005
▁заначку	-11.5005
▁аварий	-11.5005
▁честным	-11.5005
▁массаж	-11.5005
▁коротка	-11.5005
▁эстрад	-11.5005
▁долбан	-11.5005
▁сменить	-11.5006
▁илон	-11.5006
▁отвечал	-11.5007
▁насморк	-11.5007
▁защитник	-11.5007
▁вторым	-11.5008
▁собираетесь	-11.5009
▁овец	-11.5009
▁кабак	-11.501
▁персик	-11.501
▁посмотрю	-11.501
▁ушах	-11.5017
▁приезд	-11.5018
▁баян	-11.5022
▁стриж	-11.5024
стучать	-11.5026
▁ветеран	-11.5031
▁выслуша	-11.5039
▁монстр	-11.5048
сыпает	-11.505
ходящего	-11.5053
писано	-11.5072
▁побил	-11.5093
▁дарил	-11.5136
крытия	-11.5142
▁деньгам	-11.5219
▁выбираю	-11.5231
берешь	-11.5243
▁условия	-11.5268
▁учитыва	-11.5276
▁брежнев	-11.529
▁имущество	-11.529
▁кастрюлю	-11.529
▁куклачев	-11.529
▁младенц	-11.529
▁множество	-11.529
▁обычных	-11.529
▁олимпиады	-11.529
▁ошибся	-11.529
▁поросенка	-11.529
▁преступление	-11.529
▁гидрометцентр	-11.529
▁деревня	-11.529
▁зрители	-11.529
▁инфаркт	-11.529
▁испытывает	-11.529
▁кислород	-11.529
▁мудрец	-11.529
▁освежител	-11.529
▁поговорка	-11.529
▁поменьше	-11.529
▁преодоле	-11.529
▁препарат	-11.529
▁секретарши	-11.529
▁сибири	-11.529
▁спартак	-11.529
▁травматолог	-11.529
▁трясутся	-11.529
▁церемон	-11.529
▁двойку	-11.529
▁свежая	-11.529
▁требовать	-11.529
▁молчишь	-11.529
▁пограничн	-11.529
▁предлагал	-11.529
▁доширак	-11.529
▁общаге	-11.529
▁сиденье	-11.529
▁квантов	-11.529
▁лекцию	-11.529
▁российскую	-11.529
▁кухня	-11.529
▁подсказывает	-11.529
▁опечат	-11.529
▁концом	-11.529
▁маразм	-11.529
▁относятся	-11.529
▁владеет	-11.529
▁ананас	-11.529
▁бороду	-11.529
▁присыла	-11.529
▁абраша	-11.529
▁постирал	-11.529
▁экономике	-11.529
▁внешни	-11.529
▁комеди	-11.529
▁зенит	-11.529
▁погулять	-11.529
▁четко	-11.529
▁аварии	-11.529
▁начнем	-11.5291
▁тюбик	-11.5291
▁похмел	-11.5291
▁сообрази	-11.5291
▁сочета	-11.5291
▁легенд	-11.5291
▁объедини	-11.5292
▁небрит	-11.5292
▁политическо	-11.5293
▁добавляет	-11.5293
▁питания	-11.5293
▁ищешь	-11.5294
▁легким	-11.5294
▁враща	-11.5295
▁дурдом	-11.5295
▁крепкий	-11.5295
▁нанотехнолог	-11.5295
▁мешай	-11.5295
▁вешал	-11.5296
▁стекла	-11.5301
▁сынишк	-11.5313
▁ролик	-11.5319
▁ожив	-11.5327
▁злобн	-11.5331
▁пыл	-11.5361
пускал	-11.5384
▁содержать	-11.542
▁насрал	-11.5436
сюда	-11.5485
▁прицел	-11.5507
магазин	-11.5512
▁заведу	-11.5521
завод	-11.5525
▁президентски	-11.5526
▁излиш	-11.5531
▁объяви	-11.5534
бирайте	-11.5546
▁назови	-11.5551
▁прекрасна	-11.5556
▁предполага	-11.5584
первоклассник	-11.5584
▁анестези	-11.5584
▁блондинке	-11.5584
▁владелец	-11.5584
▁воскликнул	-11.5584
▁госдуме	-11.5584
▁депрессии	-11.5584
▁доказано	-11.5584
▁жириновский	-11.5584
▁завещание	-11.5584
▁наблюдал	-11.5584
▁навигатор	-11.5584
▁некрасиво	-11.5584
▁проверять	-11.5584
▁разнообрази	-11.5584
▁свидетелей	-11.5584
▁свидетели	-11.5584
▁увольнен	-11.5584
▁хрущев	-11.5584
▁бордюр	-11.5584
▁вырастить	-11.5584
▁капусту	-11.5584
▁расскажет	-11.5584
▁величия	-11.5584
▁отомстить	-11.5584
▁приснился	-11.5584
▁толпы	-11.5584
▁маленьком	-11.5584
▁приобрел	-11.5584
▁тапочки	-11.5584
▁безусловно	-11.5584
▁поженились	-11.5584
▁справочн	-11.5584
▁горшок	-11.5584
▁замечаю	-11.5584
▁авторитет	-11.5584
▁быстрей	-11.5584
▁писатель	-11.5584
▁выбирал	-11.5584
▁слабые	-11.5584
▁трогал	-11.5584
▁внутрь	-11.5584
▁прочитав	-11.5584
▁здание	-11.5584
▁слоган	-11.5584
▁закурить	-11.5584
▁категорически	-11.5584
▁сенатор	-11.5584
▁обижает	-11.5584
▁взвешива	-11.5584
▁вызывать	-11.5585
▁подпись	-11.5585
▁критически	-11.5585
▁курьер	-11.5585
▁инфо	-11.5585
▁спеша	-11.5585
▁сперва	-11.5585
▁последствия	-11.5585
▁камаз	-11.5585
▁нью	-11.5586
▁прикалыва	-11.5586
▁клетку	-11.5586
▁передачу	-11.5586
▁удивлением	-11.5586
▁восемьдесят	-11.5586
▁углом	-11.5586
▁закончилось	-11.5587
▁дожить	-11.5587
▁кончилось	-11.5588
▁макрон	-11.5588
▁понравится	-11.5588
▁водке	-11.5588
▁исаак	-11.5589
▁вспоминает	-11.5591
▁съедобн	-11.5592
▁додума	-11.5592
▁завидую	-11.5593
секретарь	-11.5593
▁искусственно	-11.5596
▁повестк	-11.5598
▁глота	-11.5598
▁договарива	-11.56
▁покойник	-11.5601
▁снимет	-11.5605
▁прятал	-11.5609
▁тайна	-11.562
писывают	-11.5636
▁смуща	-11.564
▁овца	-11.5676
нюхать	-11.5707
▁начну	-11.5732
▁цари	-11.5737
▁воевал	-11.5749
▁искр	-11.5755
▁раскрыв	-11.5768
▁оторвал	-11.5798
пылесос	-11.5815
вторая	-11.5816
▁набирает	-11.5822
▁опроверг	-11.5887
▁противозачаточн	-11.5887
▁умудря	-11.5887
▁алексей	-11.5887
▁альпинист	-11.5887
▁антисемит	-11.5887
▁благодарность	-11.5887
▁голландии	-11.5887
▁грязи	-11.5887
▁девчонок	-11.5887
▁железнодорожн	-11.5887
▁зеркалу	-11.5887
▁избирателей	-11.5887
▁импортозамещени	-11.5887
▁коллектор	-11.5887
▁комиссии	-11.5887
▁контракт	-11.5887
▁короновирус	-11.5887
▁любопытны	-11.5887
▁мгновенно	-11.5887
▁настоящих	-11.5887
▁полицейские	-11.5887
▁потихоньку	-11.5887
▁превосход	-11.5887
▁предупреждени	-11.5887
▁просыпаешься	-11.5887
▁референдум	-11.5887
▁рюкзак	-11.5887
▁рюмку	-11.5887
▁симптом	-11.5887
▁собеседовании	-11.5887
▁улыбаться	-11.5887
▁шампанским	-11.5887
▁логично	-11.5887
▁опозна	-11.5887
▁теннис	-11.5887
▁устанавлива	-11.5887
▁млрд	-11.5887
▁петросян	-11.5887
▁надписи	-11.5887
▁терпения	-11.5887
▁украден	-11.5887
▁биологии	-11.5887
▁отправляют	-11.5887
▁батарее	-11.5887
▁относитесь	-11.5887
▁рождается	-11.5887
▁меркель	-11.5887
▁прическу	-11.5887
▁обращай	-11.5887
▁домашние	-11.5887
▁логики	-11.5887
▁лавров	-11.5887
▁торгует	-11.5887
▁чихнул	-11.5887
▁последнем	-11.5887
▁ремнем	-11.5887
▁внешне	-11.5887
▁десяток	-11.5887
▁стирает	-11.5887
▁жителя	-11.5887
▁коммунальн	-11.5887
▁филолог	-11.5887
▁пастух	-11.5887
▁шторы	-11.5888
▁довести	-11.5888
▁палаты	-11.5888
▁технологии	-11.5888
▁эффективны	-11.5888
▁клетке	-11.5888
▁взвод	-11.5888
▁упасть	-11.5888
▁онанизм	-11.5888
▁арестован	-11.5889
▁бабушкой	-11.5889
▁пропасть	-11.5889
▁грабитель	-11.5889
▁сильным	-11.5889
▁чеченски	-11.589
▁горько	-11.5892
▁овцы	-11.5893
▁вонюч	-11.5893
▁прилетел	-11.5895
▁брюс	-11.5896
▁национальны	-11.59
▁тайну	-11.5903
▁цикл	-11.5915
▁убери	-11.592
▁шиш	-11.5924
переводчик	-11.5932
▁залетел	-11.5938
йорк	-11.5953
▁наивно	-11.5968
▁вздох	-11.5992
тягивают	-11.5992
▁участи	-11.5998
▁хвалит	-11.6004
топтал	-11.6008
▁покрыт	-11.6026
равно	-11.6034
▁давн	-11.6082
▁разрыв	-11.6084
▁перепута	-11.6086
пациент	-11.6128
держивают	-11.6137
▁километр	-11.6142
▁изобретател	-11.6157
▁еврейски	-11.616
берег	-11.6163
колоть	-11.6166
▁золота	-11.6172
▁запомина	-11.618
▁начальн	-11.6195
▁коричнев	-11.6199
▁серебрян	-11.6199
▁антивирус	-11.6199
▁беларуси	-11.6199
▁бумеранг	-11.6199
▁виагра	-11.6199
▁голливуд	-11.6199
▁заседание	-11.6199
▁информацию	-11.6199
▁калашников	-11.6199
▁картофель	-11.6199
▁кладбища	-11.6199
▁клянусь	-11.6199
▁лопатой	-11.6199
▁мальвина	-11.6199
▁мультфильм	-11.6199
▁называем	-11.6199
▁определенно	-11.6199
▁парфюм	-11.6199
▁пододеяльник	-11.6199
▁припарков	-11.6199
▁проституткой	-11.6199
▁пугачевой	-11.6199
▁сережки	-11.6199
▁смеялся	-11.6199
▁сокращени	-11.6199
▁хозяйке	-11.6199
▁христос	-11.6199
▁шахматист	-11.6199
▁шотландск	-11.6199
▁энергич	-11.6199
▁изготовлен	-11.6199
▁намордник	-11.6199
▁раковину	-11.6199
▁снайпер	-11.6199
▁нобелевск	-11.6199
▁помощник	-11.6199
▁попробую	-11.6199
▁семечки	-11.6199
▁апостол	-11.6199
▁картошкой	-11.6199
▁нравлюсь	-11.6199
▁просыпаются	-11.6199
▁развлека	-11.6199
▁танцор	-11.6199
▁дозвони	-11.6199
▁семеро	-11.6199
владивосток	-11.6199
▁наверх	-11.6199
▁высокая	-11.6199
▁наушники	-11.6199
▁одноклассниц	-11.6199
▁кашель	-11.62
▁грусти	-11.62
▁пульс	-11.62
▁глянь	-11.62
▁проверь	-11.62
▁обычная	-11.62
▁лишние	-11.62
▁пятьсот	-11.62
▁молодежи	-11.62
аннибал	-11.62
▁вертикаль	-11.62
▁котенок	-11.62
▁пословиц	-11.62
▁точнее	-11.62
▁требовал	-11.62
▁надевает	-11.62
▁ислам	-11.62
▁рыцар	-11.62
▁спустил	-11.62
▁анонимны	-11.62
▁отмечать	-11.62
▁спускается	-11.62
▁экономику	-11.62
▁обижать	-11.62
▁откровенн	-11.62
▁мтс	-11.6201
▁индии	-11.6201
▁отметить	-11.6201
▁позвать	-11.6201
▁имеешь	-11.6201
▁сдачу	-11.6202
терьер	-11.6202
▁гимнаст	-11.6202
▁ищите	-11.6203
▁гоги	-11.6204
▁ядерны	-11.6204
▁кабач	-11.6205
▁африкански	-11.6206
▁повторяет	-11.6206
▁жэк	-11.6206
▁щенк	-11.6208
▁васильев	-11.6213
▁разочарова	-11.6217
▁вчерашни	-11.6226
▁прогулива	-11.6228
катил	-11.6234
▁поднимал	-11.6238
▁бездомн	-11.6247
нятия	-11.6249
▁тонко	-11.63
▁приличны	-11.6312
▁реальн	-11.6335
▁несправедлив	-11.6399
▁получаю	-11.6406
ткнулся	-11.6426
знакомых	-11.6427
официант	-11.645
▁образованн	-11.6466
глядеть	-11.6475
▁окружа	-11.6475
▁соревнова	-11.652
▁понадоби	-11.652
▁грандиозн	-11.6522
▁айсберг	-11.6522
▁атмосфер	-11.6522
▁близорук	-11.6522
▁великолепно	-11.6522
▁венеролог	-11.6522
▁вздыхает	-11.6522
▁впечатления	-11.6522
▁выяснить	-11.6522
▁грядк	-11.6522
▁дискотеке	-11.6522
▁комиссия	-11.6522
▁конопля	-11.6522
▁креатив	-11.6522
▁непредсказуем	-11.6522
▁пирожок	-11.6522
▁пиццу	-11.6522
▁подозревал	-11.6522
▁пригодится	-11.6522
▁пригрозил	-11.6522
▁приключений	-11.6522
▁рюмки	-11.6522
▁свадьбой	-11.6522
▁степени	-11.6522
▁хэллоуин	-11.6522
▁шотландец	-11.6522
▁зрителей	-11.6522
▁кресла	-11.6522
▁маленькое	-11.6522
▁пособие	-11.6522
▁расстегнут	-11.6522
▁сочинения	-11.6522
▁расплачива	-11.6522
▁рюмочк	-11.6522
▁туфель	-11.6522
▁декрет	-11.6522
▁ненависть	-11.6522
▁вымерли	-11.6522
▁флирт	-11.6522
▁гипс	-11.6522
▁обочине	-11.6522
▁чукче	-11.6522
▁бентли	-11.6522
▁довольна	-11.6522
▁подошли	-11.6522
▁валерьян	-11.6522
▁проверил	-11.6522
▁незаконно	-11.6522
▁выспался	-11.6522
▁подумав	-11.6522
▁загадыва	-11.6522
▁влияет	-11.6522
▁остановки	-11.6522
▁подожду	-11.6522
▁робинзон	-11.6522
▁загадал	-11.6522
▁случаю	-11.6522
▁моисей	-11.6522
▁караоке	-11.6522
▁педали	-11.6523
▁почаще	-11.6523
▁ненадолго	-11.6523
▁всякое	-11.6523
▁едва	-11.6523
▁соперник	-11.6524
▁позади	-11.6524
▁пуля	-11.6525
▁стираю	-11.6525
▁выскоч	-11.6525
▁астролог	-11.6526
▁панике	-11.6527
▁уролог	-11.6527
▁панику	-11.6528
▁скайп	-11.653
▁улитк	-11.6534
▁косичк	-11.6539
▁рейс	-11.654
▁разработал	-11.6547
▁засовыва	-11.6553
▁отчитыва	-11.6556
▁линейк	-11.6576
▁любовны	-11.658
▁перекур	-11.6583
▁деревенски	-11.6604
▁естественн	-11.6621
клаус	-11.6622
▁споткну	-11.6627
▁свалил	-11.6638
▁подойди	-11.6655
▁поплав	-11.668
▁передава	-11.6699
лезай	-11.6752
счастлив	-11.6784
подходит	-11.6784
купая	-11.6823
сказать	-11.6823
▁случая	-11.6834
▁администрации	-11.6855
▁альтернатив	-11.6855
▁аудитории	-11.6855
▁дальнобойщик	-11.6855
▁ежегодн	-11.6855
▁завтрашнего	-11.6855
▁инаугураци	-11.6855
▁лампочки	-11.6855
▁любопытств	-11.6855
▁михалков	-11.6855
▁одиночества	-11.6855
▁оскорбил	-11.6855
▁предварительно	-11.6855
▁присутствии	-11.6855
▁скамейке	-11.6855
▁сколково	-11.6855
▁стиральную	-11.6855
▁татуировка	-11.6855
▁участвовать	-11.6855
▁фотошоп	-11.6855
▁болезней	-11.6855
▁запорожц	-11.6855
▁косметики	-11.6855
▁недостатка	-11.6855
▁посоветуете	-11.6855
▁поссорились	-11.6855
▁поставлен	-11.6855
▁психбольниц	-11.6855
▁разработк	-11.6855
▁следующую	-11.6855
▁успокоить	-11.6855
▁шерстян	-11.6855
▁аналитик	-11.6855
▁воробей	-11.6855
▁сыграл	-11.6855
▁юридическ	-11.6855
▁роскошн	-11.6855
▁сократить	-11.6855
▁кофточк	-11.6855
▁просьбой	-11.6855
▁начальство	-11.6855
▁джинсах	-11.6855
▁скидки	-11.6855
▁фирму	-11.6855
▁важнее	-11.6855
▁чужого	-11.6855
▁американцам	-11.6855
▁командировке	-11.6855
▁чапаев	-11.6855
▁паровоз	-11.6855
▁веревку	-11.6855
▁мешать	-11.6855
▁средних	-11.6855
▁выспаться	-11.6855
▁подарков	-11.6856
▁шахтер	-11.6856
▁поддержать	-11.6856
▁мерзав	-11.6856
▁обладает	-11.6856
▁быстрый	-11.6856
▁гранату	-11.6856
▁стажем	-11.6856
▁пробежк	-11.6856
▁родственникам	-11.6856
▁пасху	-11.6856
▁игрушечн	-11.6856
▁торчит	-11.6856
▁могилу	-11.6856
▁одинокая	-11.6856
▁напишу	-11.6856
▁рискует	-11.6856
▁неопытн	-11.6856
▁всплыв	-11.6856
▁охоте	-11.6857
▁легкие	-11.6857
▁юбка	-11.6857
▁едим	-11.6857
▁жажд	-11.6857
▁снеговик	-11.6857
▁защиту	-11.6858
▁николаев	-11.6858
▁зритель	-11.6858
▁расстроен	-11.6859
▁обижен	-11.6861
▁вешать	-11.6862
▁поверил	-11.6862
беречь	-11.6862
▁переживаю	-11.6863
▁вершин	-11.6867
▁казан	-11.6869
▁гвно	-11.687
▁платеж	-11.6875
▁находишь	-11.6875
▁выразил	-11.6877
▁кушаю	-11.6892
лезла	-11.6896
▁тесно	-11.6898
кладывают	-11.69
▁подобрать	-11.691
зовут	-11.693
▁отдельны	-11.6939
летних	-11.6944
бьешь	-11.6946
▁поскользну	-11.6947
▁вывеск	-11.6991
▁ржал	-11.7017
▁выписыва	-11.7024
слон	-11.7038
▁цветочн	-11.7042
▁косточк	-11.707
▁увлечен	-11.7072
исках	-11.7092
▁одеваю	-11.7113
▁пересчита	-11.7121
поэтому	-11.7129
▁перчатк	-11.7131
орвались	-11.7139
▁сантиметр	-11.7142
помню	-11.7148
▁открой	-11.7191
▁опохмел	-11.72
▁абонент	-11.72
▁аппендицит	-11.72
▁бифштекс	-11.72
▁воображаем	-11.72
▁гуманитарн	-11.72
▁джигурд	-11.72
▁жигули	-11.72
▁замечание	-11.72
▁здравоохранения	-11.72
▁зеркальце	-11.72
▁клинтон	-11.72
▁коррупцию	-11.72
▁менделеев	-11.72
▁метеорит	-11.72
▁несомненно	-11.72
▁обрезание	-11.72
▁объяснени	-11.72
▁официальны	-11.72
▁плывет	-11.72
▁подзатыльник	-11.72
▁поликлиники	-11.72
▁приобрести	-11.72
▁произошел	-11.72
▁прохожих	-11.72
▁расследовани	-11.72
▁саакашвили	-11.72
▁сбываются	-11.72
▁свободная	-11.72
▁секретаршу	-11.72
▁семнадцат	-11.72
▁скважину	-11.72
▁сотрудниц	-11.72
▁стиральной	-11.72
▁территорию	-11.72
▁трагедия	-11.72
▁тюрьма	-11.72
▁участок	-11.72
▁шелленберг	-11.72
▁болгар	-11.72
▁бульдозер	-11.72
▁загадку	-11.72
▁осуществ	-11.72
▁педагог	-11.72
▁пропаганд	-11.72
▁работодател	-11.72
▁рогозин	-11.72
▁смайлик	-11.72
▁трогать	-11.72
▁утвержден	-11.72
▁чебурек	-11.72
▁армейск	-11.72
▁становишься	-11.72
▁таблетка	-11.72
▁израиля	-11.72
▁хоронят	-11.72
▁приехать	-11.72
▁ритуальны	-11.72
▁синоним	-11.72
▁приблизи	-11.72
▁проверки	-11.72
▁разрешения	-11.72
▁находчив	-11.72
▁фингал	-11.72
▁индийски	-11.72
▁погладил	-11.72
▁размножаются	-11.72
▁шикарны	-11.72
▁привычки	-11.72
▁рыболов	-11.72
▁цемент	-11.72
▁тихий	-11.72
▁механик	-11.72
▁кавалер	-11.72
▁подумают	-11.72
▁заряжа	-11.72
▁взаимо	-11.7201
▁учителей	-11.7201
▁зебра	-11.7201
▁мыслей	-11.7201
▁лодку	-11.7201
▁увижу	-11.7201
▁ковбой	-11.7201
▁стивен	-11.7201
▁благодари	-11.7201
▁версии	-11.7201
▁болят	-11.7201
▁жулик	-11.7201
▁жалеть	-11.7201
▁напиток	-11.7202
▁огня	-11.7202
▁новостям	-11.7202
▁шапка	-11.7204
▁пещер	-11.7204
потребител	-11.7204
▁приземл	-11.7205
▁ловко	-11.7206
▁пищев	-11.7208
▁хмур	-11.7208
▁яблон	-11.7209
▁советует	-11.721
▁бесконечн	-11.7211
▁коньяч	-11.7213
▁сломать	-11.7213
▁баночк	-11.7216
▁сосуд	-11.7221
▁дроч	-11.7223
▁пустяк	-11.7225
▁пруд	-11.7228
думаю	-11.7232
▁строительн	-11.7237
▁курочк	-11.7237
скакива	-11.7239
▁проруби	-11.7244
▁психиатрическ	-11.7262
нюхал	-11.7304
любителей	-11.7315
▁психологическ	-11.7351
▁утечк	-11.7401
▁пригласи	-11.7407
▁выключен	-11.7472
▁заявля	-11.7476
▁остальн	-11.748
▁категори	-11.7483
овременная	-11.7489
▁поставит	-11.7547
▁абитуриент	-11.7557
▁воспоминания	-11.7557
▁деклараци	-11.7557
▁деревьев	-11.7557
▁дискотеку	-11.7557
▁истерики	-11.7557
▁короткие	-11.7557
▁коррупция	-11.7557
▁кукуруз	-11.7557
▁нетерпением	-11.7557
▁нетрадиционн	-11.7557
▁однозначно	-11.7557
▁опубликовал	-11.7557
▁пентагон	-11.7557
▁перекрестке	-11.7557
▁племянник	-11.7557
▁поддержку	-11.7557
▁подозрительны	-11.7557
▁познакомится	-11.7557
▁послушать	-11.7557
▁резиновую	-11.7557
▁рентген	-11.7557
▁скрестить	-11.7557
▁соловьев	-11.7557
▁таблеток	-11.7557
▁татуировку	-11.7557
▁торжественно	-11.7557
▁уничтожа	-11.7557
▁хоккеист	-11.7557
гомеопат	-11.7557
урюпинск	-11.7557
▁аккаунт	-11.7557
▁алфавит	-11.7557
▁глобус	-11.7557
▁грохот	-11.7557
▁инстинкт	-11.7557
▁кенгуру	-11.7557
▁клавиатуре	-11.7557
▁красавец	-11.7557
▁плейшнер	-11.7557
▁прислушива	-11.7557
▁проверял	-11.7557
▁пулемет	-11.7557
▁сохранен	-11.7557
▁услышит	-11.7557
▁филипп	-11.7557
▁эскалатор	-11.7557
▁бункер	-11.7557
▁леонид	-11.7557
▁мягкий	-11.7557
▁окошко	-11.7557
▁прошедши	-11.7557
▁разброса	-11.7557
▁блестящ	-11.7557
▁норрис	-11.7557
▁приготовь	-11.7557
▁шапочку	-11.7557
▁останутся	-11.7557
▁превысил	-11.7557
▁поужина	-11.7557
▁предварительны	-11.7557
▁зрелищ	-11.7557
▁белоруссии	-11.7557
▁просыпаться	-11.7557
▁синагог	-11.7557
▁автошкол	-11.7557
▁противогаз	-11.7557
▁карточку	-11.7557
▁управления	-11.7557
▁прелесть	-11.7557
▁трассе	-11.7557
▁успеет	-11.7557
▁лишним	-11.7558
▁скачет	-11.7558
шедшая	-11.7558
▁уважение	-11.7558
▁спецназ	-11.7558
▁форбс	-11.7558
▁легких	-11.7558
▁извилин	-11.7558
▁слабый	-11.7558
▁швабр	-11.7558
▁латви	-11.7558
▁царств	-11.7558
▁погром	-11.7558
▁сиськами	-11.7558
▁ролевы	-11.7558
▁тапки	-11.7558
▁ожог	-11.7558
▁угадал	-11.7558
▁направление	-11.7558
▁многочисленны	-11.7559
▁иностранн	-11.7559
▁судьи	-11.7559
▁ржав	-11.756
▁набуха	-11.7561
▁непьющ	-11.7561
▁безвиз	-11.7561
▁технику	-11.7563
▁сурово	-11.7563
▁мамонт	-11.7564
низить	-11.7566
▁настойчиво	-11.7567
▁беляш	-11.7571
двинуть	-11.7573
▁выгулива	-11.7573
▁коварны	-11.7576
▁талон	-11.7577
▁тронул	-11.7592
бавлять	-11.7598
▁творческ	-11.7616
очень	-11.7616
▁падающ	-11.7637
▁называю	-11.7716
▁политкорректн	-11.7728
продавщица	-11.7856
тыкать	-11.7856
▁прикрыв	-11.7894
писаны	-11.7902
▁означа	-11.7911
▁олимп	-11.7927
феминистк	-11.7928
▁внученька	-11.7928
▁единственным	-11.7928
▁калькулятор	-11.7928
▁министерства	-11.7928
▁мошенник	-11.7928
▁мудрая	-11.7928
▁ожидания	-11.7928
▁синдром	-11.7928
▁собственным	-11.7928
▁соцсети	-11.7928
▁физкультуры	-11.7928
▁шифровк	-11.7928
▁айболит	-11.7928
▁антаркти	-11.7928
▁беспорядк	-11.7928
▁библиотеку	-11.7928
▁боулинг	-11.7928
▁владельца	-11.7928
▁водолаз	-11.7928
▁дезодорант	-11.7928
▁деревянны	-11.7928
▁завязал	-11.7928
▁комментарий	-11.7928
▁кондитерск	-11.7928
▁масштаб	-11.7928
▁молдавски	-11.7928
▁обижаются	-11.7928
▁оборудован	-11.7928
▁оперативн	-11.7928
▁отобрать	-11.7928
▁педофил	-11.7928
▁пользователей	-11.7928
▁потенциальн	-11.7928
▁проститутку	-11.7928
▁сарказм	-11.7928
▁сковородку	-11.7928
▁таможне	-11.7928
▁трамвая	-11.7928
▁улучша	-11.7928
▁феррари	-11.7928
▁долбоб	-11.7928
▁издалека	-11.7928
▁переименован	-11.7928
▁плитку	-11.7928
▁успеешь	-11.7928
▁гнезд	-11.7928
▁годовщин	-11.7928
▁девочкой	-11.7928
▁детектор	-11.7928
▁покупку	-11.7928
▁двойки	-11.7928
▁подготовил	-11.7928
▁тарелке	-11.7928
▁распозна	-11.7928
▁тряпоч	-11.7928
▁выпьет	-11.7928
▁чужое	-11.7928
▁шикарно	-11.7928
▁тампакс	-11.7928
▁однополы	-11.7928
▁змеи	-11.7928
▁сажают	-11.7928
▁обречен	-11.7928
▁ныря	-11.7928
▁обращая	-11.7928
▁противоречи	-11.7928
▁отгадай	-11.7928
▁семейств	-11.7928
▁уточня	-11.7928
▁детскую	-11.7928
▁кончится	-11.7928
▁вечеринки	-11.7928
▁татьян	-11.7928
▁снежинк	-11.7928
▁музыки	-11.7928
▁ночевать	-11.7928
▁поиграем	-11.7928
▁наличии	-11.7928
▁мною	-11.7928
▁астроном	-11.7928
▁крещен	-11.7928
▁желаний	-11.7928
▁обсуди	-11.7928
▁попкорн	-11.7928
▁покупка	-11.7929
▁сотовый	-11.7929
▁равнодуш	-11.7929
▁дереву	-11.7929
▁яблочн	-11.7929
▁полагает	-11.793
▁замучил	-11.793
▁хроническ	-11.793
▁тратят	-11.793
▁дырявы	-11.793
клоняется	-11.793
▁минимальн	-11.7931
▁ночевал	-11.7932
▁замкнут	-11.7933
▁открывал	-11.7935
▁сказав	-11.7936
▁суеверн	-11.7937
плыть	-11.7943
▁вылетел	-11.7946
▁типичн	-11.7949
▁бодро	-11.7951
▁изящн	-11.7953
▁прощай	-11.7954
▁тампон	-11.7955
▁фейк	-11.7957
▁прощаю	-11.798
ничтожен	-11.7996
▁свалива	-11.7996
▁преследова	-11.8043
тягивать	-11.8067
▁обследова	-11.812
▁переворачива	-11.8177
▁выпиваю	-11.8226
▁распространенн	-11.8231
девочка	-11.8241
▁священн	-11.8263
▁скучны	-11.8271
мозг	-11.8278
▁багаж	-11.8295
грузить	-11.8303
клаустрофоб	-11.8312
▁администрация	-11.8312
▁безнадежн	-11.8312
▁бесплатная	-11.8312
▁бригада	-11.8312
▁бумагой	-11.8312
▁глубже	-11.8312
▁депрессию	-11.8312
▁застегива	-11.8312
▁изнасиловать	-11.8312
▁камасутру	-11.8312
▁клавиатуру	-11.8312
▁консультаци	-11.8312
▁мединститут	-11.8312
▁некрасивых	-11.8312
▁нормальных	-11.8312
▁отверстие	-11.8312
▁отношусь	-11.8312
▁ошиблись	-11.8312
▁подозреваем	-11.8312
▁пожизненно	-11.8312
▁познакомлюсь	-11.8312
▁приговаривает	-11.8312
▁пристегну	-11.8312
▁прохожего	-11.8312
▁религиозны	-11.8312
▁совершить	-11.8312
▁сумасшедший	-11.8312
▁требование	-11.8312
▁упаковку	-11.8312
▁условии	-11.8312
▁хозяйство	-11.8312
▁четырнадцат	-11.8312
▁энергии	-11.8312
▁донцовой	-11.8312
▁забеременеть	-11.8312
▁ленинград	-11.8312
▁лесбиянка	-11.8312
▁несчастье	-11.8312
▁пирсинг	-11.8312
▁порошок	-11.8312
▁проснувшись	-11.8312
▁сифилис	-11.8312
▁лотерейны	-11.8312
▁отношении	-11.8312
▁попозже	-11.8312
▁потребует	-11.8312
▁украшен	-11.8312
▁воскресенья	-11.8312
▁испании	-11.8312
▁ружья	-11.8312
▁клинике	-11.8312
▁провайдер	-11.8312
▁женитьба	-11.8312
▁чукчу	-11.8312
▁грабители	-11.8312
▁раввин	-11.8312
▁оксана	-11.8312
фантастическ	-11.8312
▁теория	-11.8312
▁охраны	-11.8312
▁шапке	-11.8312
▁пропадал	-11.8312
▁крупную	-11.8312
▁новейши	-11.8312
▁шведск	-11.8312
▁марковна	-11.8312
▁производителя	-11.8312
▁пятерку	-11.8312
ъехать	-11.8312
▁изменится	-11.8313
▁повезет	-11.8313
▁гусениц	-11.8313
▁подзывает	-11.8313
▁уважать	-11.8313
▁дпс	-11.8313
▁ладони	-11.8313
▁кошечка	-11.8313
▁деточка	-11.8313
▁проехать	-11.8313
▁книжно	-11.8313
▁девичь	-11.8313
▁божий	-11.8313
▁охоты	-11.8313
▁прячут	-11.8313
▁совмести	-11.8313
▁вырастил	-11.8313
▁половине	-11.8313
▁ромашк	-11.8313
▁ласковы	-11.8313
▁голландск	-11.8314
▁страстно	-11.8315
▁взаимно	-11.8316
▁открывай	-11.8317
▁царск	-11.8317
▁квартал	-11.8317
▁читател	-11.8318
▁выполняет	-11.8318
▁колюч	-11.8318
▁прибыль	-11.8319
▁европейц	-11.8323
▁теряют	-11.8323
срочн	-11.8334
▁опасен	-11.8351
▁связыва	-11.836
▁жучк	-11.8373
ходящих	-11.8391
▁намазыва	-11.845
следуют	-11.8567
▁полярн	-11.8568
▁переписыва	-11.8584
рабатывает	-11.8589
брасывают	-11.8609
▁загляну	-11.8637
фильм	-11.8643
действовать	-11.8648
▁бросай	-11.8652
следует	-11.8658
гугл	-11.8676
человечески	-11.8698
▁съест	-11.8702
▁родственн	-11.8711
▁круглосуточн	-11.8712
▁вентилятор	-11.8712
▁виагру	-11.8712
▁вознаграждение	-11.8712
▁выпьешь	-11.8712
▁джеймс	-11.8712
▁заблокировал	-11.8712
▁заблуждени	-11.8712
▁загранпаспорт	-11.8712
▁лишних	-11.8712
▁маугли	-11.8712
▁мясокомбинат	-11.8712
▁оборачивается	-11.8712
▁объяснял	-11.8712
▁огурчик	-11.8712
▁одеколон	-11.8712
▁офигел	-11.8712
▁оформля	-11.8712
▁предохраня	-11.8712
▁привлечь	-11.8712
▁продавщицы	-11.8712
▁прститутк	-11.8712
▁сенсация	-11.8712
▁сергеевич	-11.8712
▁снаряд	-11.8712
▁становлюсь	-11.8712
▁электричке	-11.8712
▁японцы	-11.8712
▁библию	-11.8712
▁ботинок	-11.8712
▁бэрримор	-11.8712
▁въезд	-11.8712
▁джунглях	-11.8712
▁евровидение	-11.8712
▁золотых	-11.8712
▁имущества	-11.8712
▁киргиз	-11.8712
▁колечко	-11.8712
▁конюхов	-11.8712
▁олимпиада	-11.8712
▁олимпиаду	-11.8712
▁организован	-11.8712
▁отношению	-11.8712
▁переулке	-11.8712
▁преферанс	-11.8712
▁расстоянии	-11.8712
▁снотворное	-11.8712
▁сопротивление	-11.8712
▁техподдержк	-11.8712
▁тринадцат	-11.8712
▁улыбаются	-11.8712
дмитрия	-11.8712
▁потрясающе	-11.8712
▁распродаж	-11.8712
▁сибирск	-11.8712
▁частенько	-11.8712
▁отмороз	-11.8712
▁саудовск	-11.8712
▁германия	-11.8712
▁торрент	-11.8712
▁уйдешь	-11.8712
▁новорожденн	-11.8712
▁дядь	-11.8712
▁морковку	-11.8712
▁скидка	-11.8712
▁арбитр	-11.8712
▁помещении	-11.8712
▁приложение	-11.8712
▁мигрант	-11.8712
▁отказываются	-11.8712
▁мебели	-11.8712
▁казаться	-11.8712
▁скромный	-11.8712
▁изменяешь	-11.8712
▁показания	-11.8712
▁умрешь	-11.8712
▁разбираться	-11.8712
▁умственно	-11.8712
▁лишнее	-11.8713
▁мартини	-11.8713
▁безруков	-11.8713
▁шапки	-11.8713
▁проснется	-11.8713
▁штанов	-11.8713
▁кокорин	-11.8713
▁мразь	-11.8713
▁тройку	-11.8713
▁полдня	-11.8713
▁тетрис	-11.8713
▁виталик	-11.8713
▁хоровод	-11.8713
▁бампер	-11.8713
▁львиц	-11.8713
▁кариес	-11.8714
▁славян	-11.8714
▁гладко	-11.8715
▁приехав	-11.8716
▁крабов	-11.8717
▁вещам	-11.8721
▁шайб	-11.8724
▁раздельно	-11.873
▁тушен	-11.8743
▁убирает	-11.8774
лезешь	-11.886
▁закатыва	-11.8958
▁старинн	-11.8974
▁возбуди	-11.9042
вашему	-11.9057
хирург	-11.9057
чувствую	-11.9057
интересно	-11.9058
мастер	-11.9058
национальн	-11.9088
▁протягива	-11.9116
▁предложит	-11.912
африканск	-11.912
▁автосалон	-11.9129
▁бессонница	-11.9129
▁бумаге	-11.9129
▁влюбилась	-11.9129
▁возможны	-11.9129
▁восхищен	-11.9129
▁геометрии	-11.9129
▁дистрофик	-11.9129
▁египте	-11.9129
▁заседании	-11.9129
▁интроверт	-11.9129
▁инфекци	-11.9129
▁кипяток	-11.9129
▁компромисс	-11.9129
▁косметику	-11.9129
▁лампочка	-11.9129
▁меньшинств	-11.9129
▁недвижимость	-11.9129
▁недоумении	-11.9129
▁объединяет	-11.9129
▁отвлечь	-11.9129
▁отопления	-11.9129
▁переговоры	-11.9129
▁перезвоню	-11.9129
▁покупателя	-11.9129
▁посадят	-11.9129
▁почувствовать	-11.9129
▁предупредить	-11.9129
▁прихожей	-11.9129
▁произойдет	-11.9129
▁протяжен	-11.9129
▁пугачева	-11.9129
▁путешественник	-11.9129
▁резиновая	-11.9129
▁рождаемость	-11.9129
▁улучшить	-11.9129
▁урожай	-11.9129
▁фломастер	-11.9129
▁чернокож	-11.9129
▁эрекция	-11.9129
▁портвейн	-11.9129
▁расстегива	-11.9129
▁стриптизерша	-11.9129
▁укрепля	-11.9129
▁болван	-11.9129
▁гектар	-11.9129
▁гололед	-11.9129
▁дрожж	-11.9129
▁поможешь	-11.9129
▁смелый	-11.9129
▁зятек	-11.9129
▁условие	-11.9129
▁бедняга	-11.9129
▁детсад	-11.9129
▁принципиально	-11.9129
▁проснулись	-11.9129
▁пятидесяти	-11.9129
▁скатерть	-11.9129
▁задуматься	-11.9129
▁логике	-11.9129
▁поспорил	-11.9129
▁логику	-11.9129
▁запущен	-11.9129
▁коробки	-11.9129
▁крупных	-11.9129
▁таиланд	-11.9129
▁отправляет	-11.9129
▁интриг	-11.9129
▁захочу	-11.9129
шедшего	-11.9129
▁пятерки	-11.9129
▁бутово	-11.9129
▁почесал	-11.9129
▁шойгу	-11.9129
▁лагере	-11.9129
▁армянин	-11.9129
▁историк	-11.913
▁ладонь	-11.913
▁вечеринка	-11.913
▁азбук	-11.913
▁престиж	-11.913
▁ругательств	-11.913
▁выкидыва	-11.913
брызга	-11.9131
▁трещин	-11.9131
▁послушн	-11.9131
▁изумительн	-11.9131
▁отличник	-11.9131
▁крупным	-11.9131
▁кухонн	-11.9132
▁пролетел	-11.9132
▁весенни	-11.9133
▁натурально	-11.9134
вернись	-11.9138
▁табак	-11.9138
▁тазик	-11.9139
▁якутск	-11.9142
▁химик	-11.9142
▁ресниц	-11.9145
▁валенк	-11.9153
▁придержива	-11.9158
▁предсказыва	-11.9165
▁мотиваци	-11.9218
ходящие	-11.9222
▁складыва	-11.9235
▁руководств	-11.9245
▁затяну	-11.9258
▁укусит	-11.9267
▁подсчита	-11.9281
сыпают	-11.9294
▁материальны	-11.9313
▁принимаю	-11.9393
ключения	-11.9408
служить	-11.9492
сейчас	-11.9492
▁таможенн	-11.9502
очеред	-11.9524
▁обзыва	-11.9551
▁продолжит	-11.9563
▁драгоценно	-11.9564
▁алименты	-11.9564
▁благотворительн	-11.9564
▁воспользоваться	-11.9564
▁вьетнам	-11.9564
▁гастарбайтер	-11.9564
▁диспетчер	-11.9564
▁жаворонок	-11.9564
▁злопамятн	-11.9564
▁зодиака	-11.9564
▁измеряется	-11.9564
▁клавиатура	-11.9564
▁конопли	-11.9564
▁конструктор	-11.9564
▁контейнер	-11.9564
▁крыльцо	-11.9564
▁лаборатории	-11.9564
▁лошадей	-11.9564
▁монастырь	-11.9564
▁напряжение	-11.9564
▁настораживает	-11.9564
▁объясню	-11.9564
▁оранжев	-11.9564
▁подчиненных	-11.9564
▁поликлиника	-11.9564
▁полицейским	-11.9564
▁поскорее	-11.9564
▁препятстви	-11.9564
▁религия	-11.9564
▁скончался	-11.9564
▁содержимо	-11.9564
▁сопровожда	-11.9564
▁сыграть	-11.9564
▁удивительная	-11.9564
▁украинская	-11.9564
▁холтофф	-11.9564
▁центробанк	-11.9564
▁цивилизации	-11.9564
▁энергетик	-11.9564
▁благодарности	-11.9564
▁гагарин	-11.9564
▁девственность	-11.9564
▁диктатор	-11.9564
▁забеременела	-11.9564
▁зоофил	-11.9564
▁коммерческ	-11.9564
▁плесень	-11.9564
▁потепление	-11.9564
▁расшифр	-11.9564
▁реагирует	-11.9564
▁реакция	-11.9564
▁средневеков	-11.9564
▁алмаз	-11.9564
▁вассерман	-11.9564
▁видеокамер	-11.9564
▁зрителя	-11.9564
▁кетчуп	-11.9564
▁ностальги	-11.9564
▁переименовал	-11.9564
▁подождать	-11.9564
▁сердюков	-11.9564
▁выкручива	-11.9564
▁теорию	-11.9564
▁тишине	-11.9564
▁австралии	-11.9564
▁манекен	-11.9564
▁привычек	-11.9564
▁судьбу	-11.9564
▁лестницы	-11.9564
▁паяльник	-11.9564
▁пианист	-11.9564
▁телескоп	-11.9564
косметолог	-11.9564
▁вещах	-11.9564
▁юбке	-11.9564
▁болеют	-11.9564
▁подстриг	-11.9564
▁забастов	-11.9564
▁лезви	-11.9564
▁бублик	-11.9564
▁заплакал	-11.9564
▁свежим	-11.9564
▁ясновидящ	-11.9564
▁посторонн	-11.9564
▁вечеринку	-11.9564
▁столицу	-11.9564
▁обложк	-11.9564
▁прожиточн	-11.9564
▁лопата	-11.9564
▁вулкан	-11.9564
▁биологическ	-11.9564
▁десятилети	-11.9565
▁беспредел	-11.9565
▁тарелка	-11.9565
▁признавать	-11.9566
▁цитат	-11.9566
▁интеллектуальн	-11.9567
▁наказал	-11.9568
▁внесен	-11.9568
▁изобража	-11.9568
▁гриш	-11.957
▁автозак	-11.9572
▁кадило	-11.9574
▁влажн	-11.9595
▁праздновани	-11.9601
▁скачива	-11.9603
▁побочны	-11.9607
сознательно	-11.9622
▁ледян	-11.9637
▁стоянк	-11.9664
▁абсолютн	-11.9723
советские	-11.9762
▁руководит	-11.9838
▁дружеск	-11.9843
еверной	-11.9909
▁недосып	-11.9911
▁подглядыва	-11.9918
большую	-11.9947
блондинка	-11.9947
сегодня	-11.9947
последстви	-11.9952
ругался	-11.9952
сослужив	-12.0018
▁бестолков	-12.0018
▁шекспир	-12.0018
▁шестнадцат	-12.0018
подкаблучник	-12.0018
▁авиакомпани	-12.0018
▁антибиотик	-12.0018
▁баскетбол	-12.0018
▁бильярд	-12.0018
▁бондарчук	-12.0018
▁гамбургер	-12.0018
▁деятельности	-12.0018
▁джентельмен	-12.0018
▁еврею	-12.0018
▁замечать	-12.0018
▁изначально	-12.0018
▁инквизици	-12.0018
▁интегра	-12.0018
▁испекла	-12.0018
▁камуфляж	-12.0018
▁логопед	-12.0018
▁неадекват	-12.0018
▁немножечко	-12.0018
▁никотина	-12.0018
▁нисколько	-12.0018
▁общежитие	-12.0018
▁огурцов	-12.0018
▁отбирает	-12.0018
▁плацкарт	-12.0018
▁побыстрее	-12.0018
▁подешевле	-12.0018
▁подозревать	-12.0018
▁предыдущего	-12.0018
▁продукции	-12.0018
▁раздвоение	-12.0018
▁религии	-12.0018
▁сибирь	-12.0018
▁скворечник	-12.0018
▁случится	-12.0018
▁стиральная	-12.0018
▁столкновени	-12.0018
▁сумасшедше	-12.0018
▁сыграем	-12.0018
▁телепередач	-12.0018
▁харакири	-12.0018
▁хозяйства	-12.0018
▁эвакуатор	-12.0018
▁эволюции	-12.0018
▁эксплуатаци	-12.0018
▁эффективнее	-12.0018
▁займемся	-12.0018
▁кадыров	-12.0018
▁книжки	-12.0018
▁кузнец	-12.0018
▁маркетинг	-12.0018
▁новобранц	-12.0018
▁огурца	-12.0018
▁педераст	-12.0018
▁познакомимся	-12.0018
▁преувеличи	-12.0018
▁присоедини	-12.0018
▁ротенберг	-12.0018
▁диаметр	-12.0018
▁магадан	-12.0018
▁навестить	-12.0018
▁наследник	-12.0018
▁посоветовать	-12.0018
▁событие	-12.0018
▁трогательн	-12.0018
▁узнаем	-12.0018
▁витрине	-12.0018
▁дальтоник	-12.0018
▁порядка	-12.0018
▁ельцин	-12.0018
▁захлоп	-12.0018
▁змею	-12.0018
▁надежде	-12.0018
▁пипец	-12.0018
▁зимний	-12.0018
▁ненавидел	-12.0018
▁хохлы	-12.0018
▁ковчег	-12.0018
▁марафон	-12.0018
▁зимние	-12.0018
▁разоблач	-12.0018
▁половинку	-12.0018
▁вранье	-12.0019
▁новейше	-12.0019
▁размахива	-12.0019
▁санкциям	-12.0019
▁хохот	-12.0019
▁прибавк	-12.0019
▁подобрал	-12.0019
▁фисташк	-12.0019
▁плюшев	-12.0019
▁теракт	-12.0019
▁пересчитыва	-12.0019
▁отравить	-12.0019
▁системны	-12.0019
▁двоечник	-12.0019
▁веревочк	-12.002
▁покусал	-12.002
▁слабак	-12.002
▁скидыва	-12.002
▁технически	-12.0021
▁генетик	-12.0021
▁предположи	-12.0022
нберг	-12.0022
кармлива	-12.0022
▁обладател	-12.0025
▁сказанн	-12.0029
дергива	-12.0041
завершен	-12.0043
ворачивать	-12.0064
▁стареньк	-12.0082
влечения	-12.019
▁сочинск	-12.0203
крепить	-12.0255
жизненный	-12.0348
▁рассмотре	-12.0365
▁запрещающи	-12.0488
▁гвоздя	-12.0494
▁освобожден	-12.0494
▁почувствуй	-12.0494
▁продвинут	-12.0494
▁продолжай	-12.0494
▁автоответчик	-12.0494
▁альцгеймер	-12.0494
▁ассоциаци	-12.0494
▁аэрофлот	-12.0494
▁безобразия	-12.0494
▁бейсбольн	-12.0494
▁богомола	-12.0494
▁бразилии	-12.0494
▁бутылке	-12.0494
▁вискаря	-12.0494
▁вскрытие	-12.0494
▁градусник	-12.0494
▁декабрь	-12.0494
▁деятельность	-12.0494
▁дэвушк	-12.0494
▁евреем	-12.0494
▁заболевание	-12.0494
▁информация	-12.0494
▁керлинг	-12.0494
▁конгресс	-12.0494
▁космодром	-12.0494
▁мавзолее	-12.0494
▁москвой	-12.0494
▁навязчив	-12.0494
▁наступление	-12.0494
▁наушниках	-12.0494
▁недвижимости	-12.0494
▁нищеброд	-12.0494
▁общежитии	-12.0494
▁одессы	-12.0494
▁ощупь	-12.0494
▁попытке	-12.0494
▁поругались	-12.0494
▁предыдущей	-12.0494
▁претензии	-12.0494
▁продолжение	-12.0494
▁прокуратура	-12.0494
▁путешествия	-12.0494
▁сбережения	-12.0494
▁случилась	-12.0494
▁собственные	-12.0494
▁событий	-12.0494
▁соответстви	-12.0494
▁социализм	-12.0494
▁структур	-12.0494
▁терроризм	-12.0494
▁тряпку	-12.0494
▁участке	-12.0494
▁шахматн	-12.0494
▁баскервилей	-12.0494
▁влюбиться	-12.0494
▁воздушно	-12.0494
▁недовольна	-12.0494
▁овсянка	-12.0494
▁организовать	-12.0494
▁покрепче	-12.0494
▁портфель	-12.0494
▁скинулись	-12.0494
▁сосредоточ	-12.0494
▁стихотворени	-12.0494
▁царапин	-12.0494
▁испорчен	-12.0494
▁покупке	-12.0494
▁трудоголик	-12.0494
▁заведем	-12.0494
▁страдания	-12.0494
▁таджикистан	-12.0494
▁фрейд	-12.0494
▁женитьбы	-12.0494
▁кабинки	-12.0494
▁кутузов	-12.0494
▁следующая	-12.0494
▁шерлок	-12.0494
▁кажутся	-12.0494
▁царапа	-12.0494
▁восстановить	-12.0495
▁корабли	-12.0495
▁наказать	-12.0495
▁напрасно	-12.0495
▁сядешь	-12.0495
▁привязыва	-12.0495
▁диабет	-12.0495
метеоролог	-12.0495
▁покушать	-12.0495
▁переодева	-12.0495
▁блогер	-12.0495
▁стиральны	-12.0495
▁натворил	-12.0495
▁характеристик	-12.0495
▁синхро	-12.0495
▁гласит	-12.0495
▁тюремно	-12.0495
▁политолог	-12.0495
▁говоит	-12.0495
▁балерин	-12.0495
▁милицейск	-12.0495
▁покушени	-12.0495
▁устриц	-12.0496
▁бездельник	-12.0496
▁розыск	-12.0496
▁амнисти	-12.0498
▁ампутир	-12.0502
▁наступаю	-12.0507
двигает	-12.0508
дставля	-12.0584
▁старательн	-12.0632
третьих	-12.0635
пускаешь	-12.0665
глянув	-12.0683
▁пообеща	-12.0769
большом	-12.0923
▁бумажн	-12.0971
▁географ	-12.0991
▁освобожда	-12.0994
▁аккумулятор	-12.0994
▁батарейки	-12.0994
▁безобразие	-12.0994
▁ближнего	-12.0994
▁боярышник	-12.0994
▁бумажки	-12.0994
▁выставке	-12.0994
▁галактик	-12.0994
▁галлюцин	-12.0994
▁деревянно	-12.0994
▁диктант	-12.0994
▁дискотеки	-12.0994
▁дискусси	-12.0994
▁доказывать	-12.0994
▁дядю	-12.0994
▁евгений	-12.0994
▁захарченко	-12.0994
▁импотенции	-12.0994
▁информационн	-12.0994
▁истерика	-12.0994
▁кастрюли	-12.0994
▁комсомол	-12.0994
▁константин	-12.0994
